unsigned char g_model[] = {
  0x20, 0x00, 0x00, 0x00, 0x54, 0x46, 0x4c, 0x33, 0x00, 0x00, 0x00, 0x00,
  0x14, 0x00, 0x20, 0x00, 0x1c, 0x00, 0x18, 0x00, 0x14, 0x00, 0x10, 0x00,
  0x0c, 0x00, 0x00, 0x00, 0x08, 0x00, 0x04, 0x00, 0x14, 0x00, 0x00, 0x00,
  0x1c, 0x00, 0x00, 0x00, 0x1c, 0x00, 0x00, 0x00, 0x4c, 0x00, 0x00, 0x00,
  0xe0, 0x50, 0x00, 0x00, 0xf0, 0x50, 0x00, 0x00, 0x98, 0x5c, 0x00, 0x00,
  0x03, 0x00, 0x00, 0x00, 0x00, 0x00, 0x00, 0x00, 0x01, 0x00, 0x00, 0x00,
  0x0c, 0x00, 0x00, 0x00, 0x08, 0x00, 0x0c, 0x00, 0x08, 0x00, 0x04, 0x00,
  0x08, 0x00, 0x00, 0x00, 0x12, 0x00, 0x00, 0x00, 0x04, 0x00, 0x00, 0x00,
  0x13, 0x00, 0x00, 0x00, 0x6d, 0x69, 0x6e, 0x5f, 0x72, 0x75, 0x6e, 0x74,
  0x69, 0x6d, 0x65, 0x5f, 0x76, 0x65, 0x72, 0x73, 0x69, 0x6f, 0x6e, 0x00,
  0x13, 0x00, 0x00, 0x00, 0x90, 0x50, 0x00, 0x00, 0x88, 0x50, 0x00, 0x00,
  0xb8, 0x4e, 0x00, 0x00, 0x28, 0x4e, 0x00, 0x00, 0x20, 0x4e, 0x00, 0x00,
  0x10, 0x46, 0x00, 0x00, 0x00, 0x45, 0x00, 0x00, 0xf8, 0x44, 0x00, 0x00,
  0xe8, 0x24, 0x00, 0x00, 0xd8, 0x22, 0x00, 0x00, 0xd0, 0x22, 0x00, 0x00,
  0xc0, 0x02, 0x00, 0x00, 0xb0, 0x01, 0x00, 0x00, 0xa8, 0x01, 0x00, 0x00,
  0x58, 0x00, 0x00, 0x00, 0x34, 0x00, 0x00, 0x00, 0x2c, 0x00, 0x00, 0x00,
  0x24, 0x00, 0x00, 0x00, 0x04, 0x00, 0x00, 0x00, 0x22, 0xaf, 0xff, 0xff,
  0x04, 0x00, 0x00, 0x00, 0x10, 0x00, 0x00, 0x00, 0x31, 0x2e, 0x31, 0x34,
  0x2e, 0x30, 0x00, 0x00, 0x00, 0x00, 0x00, 0x00, 0x00, 0x00, 0x00, 0x00,
  0x0c, 0xaf, 0xff, 0xff, 0x10, 0xaf, 0xff, 0xff, 0x46, 0xaf, 0xff, 0xff,
  0x04, 0x00, 0x00, 0x00, 0x14, 0x00, 0x00, 0x00, 0x43, 0x01, 0x00, 0x00,
  0x56, 0xff, 0xff, 0xff, 0x5f, 0xfd, 0xff, 0xff, 0x73, 0xff, 0xff, 0xff,
  0x33, 0x02, 0x00, 0x00, 0x66, 0xaf, 0xff, 0xff, 0x04, 0x00, 0x00, 0x00,
  0x40, 0x01, 0x00, 0x00, 0xfb, 0x2e, 0x0a, 0x16, 0xd8, 0x0e, 0x08, 0x2b,
  0x24, 0x1f, 0x1d, 0x0d, 0xf5, 0xae, 0xee, 0xeb, 0x3a, 0xd2, 0x9c, 0x03,
  0x1b, 0x32, 0x27, 0x20, 0xda, 0xc1, 0xed, 0x1f, 0x3d, 0xd3, 0xe3, 0xb6,
  0xf5, 0xe2, 0xbd, 0x1a, 0x28, 0xec, 0x37, 0x1d, 0xd2, 0x12, 0x1e, 0xff,
  0xc9, 0x09, 0x07, 0xd7, 0xfb, 0xfb, 0x1e, 0xd1, 0x14, 0xd5, 0x02, 0x17,
  0x27, 0x0a, 0x3b, 0x10, 0xbd, 0xe7, 0x3a, 0x21, 0xf3, 0x0e, 0xd8, 0x1c,
  0x20, 0xf0, 0xf6, 0x0f, 0x23, 0x23, 0x02, 0x0a, 0xbe, 0x0a, 0xe8, 0x12,
  0x29, 0x06, 0x23, 0x1a, 0x0f, 0x33, 0x0c, 0x25, 0xcc, 0xd7, 0x12, 0x26,
  0xf2, 0x0f, 0xed, 0xbd, 0x16, 0x0e, 0xaf, 0xd8, 0x24, 0xbb, 0x3a, 0x18,
  0x12, 0x15, 0x10, 0x0b, 0x1e, 0x0b, 0x00, 0x0b, 0xc6, 0x1d, 0x2c, 0xe1,
  0x0b, 0xc7, 0x31, 0x24, 0x26, 0x09, 0x3d, 0xe9, 0xc8, 0x23, 0x32, 0xbf,
  0x0f, 0x13, 0x10, 0x10, 0x15, 0xcb, 0x40, 0x2b, 0x05, 0xef, 0xf3, 0xfd,
  0xf3, 0x06, 0x1f, 0xf9, 0x27, 0x0a, 0x0b, 0xd6, 0x28, 0x1f, 0x2f, 0x15,
  0x1c, 0xe2, 0x21, 0x2d, 0xe5, 0x05, 0xfa, 0x2f, 0x07, 0x26, 0xf0, 0x1c,
  0x27, 0xec, 0x3c, 0x1e, 0x11, 0x10, 0xf2, 0xf8, 0x11, 0x0c, 0x02, 0xd8,
  0xfb, 0xf5, 0x33, 0xde, 0xeb, 0x0a, 0x14, 0x16, 0x0b, 0x00, 0x3c, 0xcd,
  0xf1, 0x1f, 0x30, 0xe4, 0xf3, 0x9f, 0x12, 0x9e, 0xae, 0x15, 0x28, 0xba,
  0x0a, 0x9c, 0x1a, 0xe4, 0xf1, 0x04, 0x10, 0x0b, 0x81, 0x4f, 0x3f, 0x14,
  0x2c, 0x87, 0x31, 0x23, 0x2b, 0x51, 0x1f, 0x99, 0x51, 0x05, 0x18, 0x39,
  0x10, 0x40, 0x3e, 0x1f, 0xb6, 0xef, 0xbc, 0x8a, 0x15, 0xb1, 0xd9, 0x1b,
  0x22, 0x07, 0x13, 0xf6, 0xfe, 0x13, 0xd6, 0x4d, 0xa2, 0x08, 0xbb, 0xa0,
  0x12, 0xfb, 0x89, 0x21, 0x17, 0x20, 0xa5, 0x1d, 0x16, 0x17, 0x12, 0xb6,
  0x0b, 0x0e, 0xf5, 0x31, 0x05, 0x3b, 0xc0, 0x15, 0xf6, 0xef, 0x0e, 0x08,
  0xe0, 0x48, 0xfe, 0xf5, 0xd5, 0x25, 0xd0, 0xa8, 0xe0, 0x05, 0xe5, 0x2d,
  0xa3, 0xef, 0x0b, 0x20, 0x21, 0xe0, 0x32, 0x17, 0x28, 0xed, 0x39, 0x1b,
  0x03, 0x0a, 0x0a, 0x0c, 0x05, 0xa8, 0xad, 0x1e, 0xfe, 0x03, 0xe0, 0x4d,
  0x13, 0x03, 0x46, 0x25, 0x0f, 0x00, 0xb9, 0x0a, 0x0d, 0x11, 0x41, 0xde,
  0x80, 0xb0, 0xff, 0xff, 0xb6, 0xb0, 0xff, 0xff, 0x04, 0x00, 0x00, 0x00,
  0x00, 0x01, 0x00, 0x00, 0xc6, 0xff, 0xff, 0xff, 0x5d, 0x00, 0x00, 0x00,
  0xdd, 0x00, 0x00, 0x00, 0xb4, 0xfd, 0xff, 0xff, 0xf4, 0xff, 0xff, 0xff,
  0xf2, 0xff, 0xff, 0xff, 0xfb, 0xff, 0xff, 0xff, 0x99, 0xff, 0xff, 0xff,
  0x80, 0x00, 0x00, 0x00, 0xb7, 0xfe, 0xff, 0xff, 0xb0, 0x00, 0x00, 0x00,
  0xd4, 0xff, 0xff, 0xff, 0xf5, 0x00, 0x00, 0x00, 0x1e, 0xff, 0xff, 0xff,
  0xd3, 0xff, 0xff, 0xff, 0x86, 0xff, 0xff, 0xff, 0x42, 0x00, 0x00, 0x00,
  0xa1, 0xff, 0xff, 0xff, 0x40, 0x00, 0x00, 0x00, 0xba, 0xff, 0xff, 0xff,
  0x63, 0x00, 0x00, 0x00, 0xa9, 0xff, 0xff, 0xff, 0x01, 0xff, 0xff, 0xff,
  0x2d, 0xff, 0xff, 0xff, 0x1a, 0x00, 0x00, 0x00, 0xf8, 0xff, 0xff, 0xff,
  0x5d, 0x00, 0x00, 0x00, 0x44, 0xff, 0xff, 0xff, 0x8a, 0xff, 0xff, 0xff,
  0x0c, 0x00, 0x00, 0x00, 0xcb, 0xff, 0xff, 0xff, 0x8c, 0xff, 0xff, 0xff,
  0xd4, 0xff, 0xff, 0xff, 0x9a, 0xff, 0xff, 0xff, 0x22, 0x00, 0x00, 0x00,
  0xdd, 0x00, 0x00, 0x00, 0xb9, 0xff, 0xff, 0xff, 0xf8, 0x00, 0x00, 0x00,
  0xf5, 0xfe, 0xff, 0xff, 0xba, 0xfe, 0xff, 0xff, 0x62, 0x00, 0x00, 0x00,
  0x6e, 0xfe, 0xff, 0xff, 0xf6, 0x00, 0x00, 0x00, 0xcb, 0xff, 0xff, 0xff,
  0x33, 0x00, 0x00, 0x00, 0xbd, 0x00, 0x00, 0x00, 0x24, 0xff, 0xff, 0xff,
  0xfc, 0xfe, 0xff, 0xff, 0xee, 0x00, 0x00, 0x00, 0x6c, 0x00, 0x00, 0x00,
  0x18, 0x00, 0x00, 0x00, 0xcf, 0xff, 0xff, 0xff, 0x0b, 0x00, 0x00, 0x00,
  0xbe, 0x00, 0x00, 0x00, 0x9b, 0xff, 0xff, 0xff, 0xf3, 0xff, 0xff, 0xff,
  0xf1, 0x00, 0x00, 0x00, 0xb1, 0xff, 0xff, 0xff, 0xb3, 0xfe, 0xff, 0xff,
  0xbb, 0xff, 0xff, 0xff, 0x07, 0x00, 0x00, 0x00, 0x81, 0x00, 0x00, 0x00,
  0x43, 0xff, 0xff, 0xff, 0xbc, 0x00, 0x00, 0x00, 0xc2, 0xb1, 0xff, 0xff,
  0x04, 0x00, 0x00, 0x00, 0x00, 0x20, 0x00, 0x00, 0xfe, 0xfc, 0xfe, 0xfd,
  0xfc, 0x01, 0xfd, 0xff, 0xfc, 0x00, 0xff, 0x01, 0x00, 0xfc, 0x02, 0x02,
  0xfa, 0xfb, 0x03, 0xfd, 0x01, 0x01, 0x03, 0xfa, 0x00, 0xfe, 0x01, 0xfe,
  0xfc, 0xfc, 0xff, 0x00, 0xfc, 0x02, 0xfc, 0x00, 0x02, 0xfd, 0xfc, 0xff,
  0x03, 0xfe, 0xfd, 0x02, 0xfc, 0x02, 0xfd, 0xfc, 0x01, 0xff, 0xfa, 0x01,
  0xfc, 0x02, 0x00, 0xfd, 0xfe, 0x01, 0x00, 0xfe, 0xfd, 0x00, 0xfe, 0xfc,
  0xfe, 0xfe, 0x01, 0xfe, 0x03, 0x02, 0xfe, 0x01, 0xfe, 0x00, 0x01, 0xfc,
  0x01, 0xfc, 0xfc, 0x03, 0x01, 0x00, 0x00, 0xff, 0x02, 0xff, 0xfd, 0xff,
  0x01, 0xff, 0x02, 0xfd, 0x02, 0xff, 0xfc, 0xfd, 0xfb, 0xfc, 0x00, 0xff,
  0xfc, 0xfc, 0xfa, 0xfc, 0xfd, 0x00, 0x00, 0x00, 0x01, 0x01, 0x00, 0x01,
  0x00, 0x01, 0xfd, 0x02, 0x01, 0xff, 0x02, 0xfc, 0xfd, 0xfe, 0xfc, 0xfb,
  0xfd, 0xfd, 0x03, 0x01, 0xf5, 0x00, 0x1f, 0x05, 0x03, 0x02, 0x05, 0xee,
  0xf4, 0xf3, 0xfd, 0x14, 0xf7, 0x22, 0x18, 0xff, 0x02, 0xf7, 0x01, 0x0c,
  0xff, 0x02, 0xff, 0x11, 0x02, 0xb6, 0xe9, 0xfd, 0xe0, 0x05, 0xf7, 0x04,
  0xf5, 0x00, 0xf7, 0xf9, 0xfc, 0xfd, 0x08, 0x03, 0xf9, 0xe8, 0xd9, 0xf9,
  0xff, 0x16, 0x00, 0xff, 0x02, 0xfd, 0xf9, 0xe8, 0xfe, 0x02, 0xfe, 0x20,
  0xff, 0x02, 0x00, 0x08, 0x21, 0x07, 0xff, 0x04, 0xff, 0xf7, 0xd9, 0xf5,
  0xfe, 0x03, 0x11, 0x09, 0x04, 0xfd, 0xe1, 0x03, 0xea, 0xff, 0xfe, 0x09,
  0xeb, 0xfa, 0x04, 0xfa, 0x00, 0x0f, 0x06, 0x08, 0xf1, 0xfe, 0xe7, 0xe1,
  0xf9, 0xf0, 0x0f, 0x05, 0x12, 0x02, 0x03, 0x01, 0xf9, 0x06, 0x00, 0x09,
  0x09, 0x06, 0x10, 0xcd, 0xd6, 0xfd, 0xe6, 0xf4, 0xfc, 0x05, 0xfd, 0x04,
  0xcb, 0x08, 0xff, 0x0f, 0x03, 0x01, 0xf6, 0xfa, 0xfd, 0x01, 0x08, 0x0d,
  0x0a, 0xf7, 0xfa, 0xff, 0x04, 0xff, 0x01, 0x06, 0x01, 0x03, 0x02, 0x03,
  0xf7, 0x06, 0x03, 0x12, 0xfe, 0x07, 0x03, 0x02, 0x04, 0xfc, 0xff, 0x09,
  0xf4, 0x03, 0xf8, 0x04, 0x01, 0xf1, 0xf5, 0xfc, 0x02, 0x05, 0x00, 0xff,
  0x03, 0xfc, 0xf1, 0xfd, 0x05, 0xfe, 0xf0, 0x04, 0xff, 0xfe, 0xfd, 0xf1,
  0x07, 0x06, 0x08, 0xf9, 0x00, 0xfe, 0xff, 0xfd, 0xfc, 0xfc, 0x06, 0xfd,
  0x0b, 0x03, 0x01, 0xfc, 0x0b, 0xee, 0xfa, 0xf7, 0xfe, 0x01, 0xfa, 0xff,
  0xf6, 0x05, 0x0b, 0xfb, 0x02, 0x01, 0xfb, 0xfa, 0x08, 0x01, 0x04, 0x04,
  0xfd, 0xfd, 0x02, 0xf7, 0x00, 0x03, 0x0b, 0x00, 0xe2, 0x01, 0x05, 0x02,
  0xfb, 0x03, 0x03, 0xfb, 0xff, 0xfd, 0x06, 0x09, 0xfc, 0x0c, 0x02, 0xff,
  0x05, 0xff, 0xf7, 0x02, 0xfe, 0x03, 0xfc, 0xfc, 0x06, 0xfc, 0xff, 0x06,
  0xfc, 0x00, 0x03, 0x09, 0xfd, 0x05, 0xf9, 0x08, 0xef, 0x03, 0x03, 0xfc,
  0x03, 0x07, 0xf5, 0xf1, 0xfe, 0xc5, 0x00, 0xe7, 0xfc, 0x14, 0xfc, 0x09,
  0xf6, 0x02, 0xfe, 0x03, 0x00, 0x09, 0xf7, 0xf7, 0xfb, 0x15, 0x0a, 0xff,
  0xf6, 0x07, 0xfa, 0x09, 0xfb, 0x21, 0x0e, 0x00, 0xfb, 0x02, 0x02, 0x02,
  0xfe, 0x13, 0x23, 0xf8, 0x00, 0xfb, 0x00, 0xed, 0xfd, 0xfe, 0xee, 0xfe,
  0xed, 0xff, 0x02, 0xfa, 0x01, 0x08, 0xf7, 0xfc, 0xf4, 0xfc, 0xff, 0x1c,
  0xec, 0xf3, 0xf9, 0x05, 0x04, 0x04, 0x00, 0x0e, 0xfa, 0xee, 0x0a, 0x02,
  0xfd, 0x01, 0xff, 0x0d, 0xf5, 0x00, 0xfe, 0x09, 0xff, 0x10, 0x0d, 0xff,
  0xfe, 0xfc, 0x0f, 0x08, 0x19, 0xfd, 0x00, 0x02, 0xff, 0x00, 0xfd, 0xfd,
  0x09, 0x0d, 0xf6, 0xfd, 0xf1, 0xf5, 0x18, 0x05, 0x04, 0x10, 0xf5, 0xed,
  0x07, 0xf6, 0x00, 0x03, 0x06, 0xfa, 0xfd, 0xfd, 0xff, 0x01, 0x0b, 0xd5,
  0xf9, 0x08, 0xf2, 0x02, 0x09, 0xfc, 0xfb, 0x0e, 0x02, 0xeb, 0xfc, 0xfb,
  0xf5, 0xfd, 0xfc, 0x0b, 0xfc, 0x02, 0x17, 0x09, 0x00, 0xfa, 0xfe, 0x06,
  0xff, 0xf6, 0xe9, 0xe5, 0xfd, 0x10, 0x00, 0x00, 0x0f, 0x02, 0x02, 0xfc,
  0x01, 0x1d, 0x01, 0x07, 0xf3, 0x02, 0x01, 0xfb, 0xff, 0xfc, 0xf4, 0x07,
  0x06, 0xf2, 0x01, 0xfe, 0x03, 0x02, 0x00, 0xfc, 0x0f, 0xfc, 0x06, 0xff,
  0xfe, 0x05, 0xfb, 0x03, 0x18, 0xfa, 0xfd, 0x03, 0x0b, 0xff, 0xf7, 0xf4,
  0xfe, 0xf1, 0xed, 0x04, 0xfe, 0x0e, 0xfd, 0x00, 0x00, 0x01, 0x10, 0x03,
  0xe6, 0xe8, 0xfe, 0xf8, 0x09, 0x0d, 0x04, 0x02, 0xf9, 0x00, 0x02, 0xfe,
  0x02, 0xf8, 0xfa, 0xfb, 0x17, 0xfc, 0xfc, 0x01, 0x01, 0xfe, 0xe1, 0xf3,
  0x0b, 0x03, 0xfd, 0xf1, 0xe2, 0x03, 0x06, 0x0d, 0xf0, 0xfc, 0x04, 0x02,
  0x04, 0x04, 0x04, 0xfc, 0x01, 0xfe, 0xfc, 0xf5, 0xf9, 0x00, 0xf4, 0xe8,
  0x07, 0xf9, 0xf0, 0x0d, 0xff, 0xfb, 0xf9, 0x08, 0x03, 0x0e, 0x00, 0x02,
  0xfa, 0x0a, 0xfd, 0xf7, 0xfe, 0xff, 0xfe, 0xe5, 0xfd, 0xfc, 0xfe, 0x0b,
  0xee, 0xf0, 0xe1, 0xfe, 0xff, 0xfc, 0x0e, 0xf5, 0x0f, 0xf4, 0xff, 0xf5,
  0xf6, 0x04, 0x0a, 0x06, 0xf7, 0xf2, 0xfe, 0xf2, 0x02, 0xff, 0x01, 0x01,
  0x0d, 0x00, 0x07, 0x1f, 0x01, 0x03, 0x15, 0xf6, 0xfe, 0x05, 0xfd, 0x07,
  0x0d, 0xfd, 0x00, 0x09, 0xf7, 0xd9, 0x04, 0xf1, 0x01, 0x07, 0x10, 0x09,
  0x00, 0x12, 0xfa, 0xe2, 0x0a, 0xfe, 0x03, 0xf7, 0xf6, 0x17, 0x03, 0x06,
  0x19, 0x08, 0xfc, 0xe8, 0xd1, 0xfc, 0x06, 0x0c, 0xf2, 0x06, 0x04, 0xf5,
  0x22, 0x01, 0xfe, 0x09, 0x0b, 0xea, 0x01, 0x1d, 0x04, 0xf3, 0xfc, 0x0a,
  0x05, 0xfa, 0x0a, 0xef, 0xf0, 0x0c, 0xf7, 0x04, 0xda, 0xfa, 0x03, 0xfe,
  0xfe, 0x03, 0x0c, 0xf7, 0xf7, 0x01, 0x10, 0xfe, 0xfa, 0xfe, 0x14, 0x01,
  0xfd, 0xf3, 0xfd, 0x01, 0xf0, 0x10, 0xf9, 0xfe, 0xfa, 0xfb, 0xf2, 0xfb,
  0xf6, 0x0f, 0x01, 0x01, 0x03, 0xed, 0xa8, 0xf8, 0xfa, 0x17, 0xe9, 0xff,
  0xfc, 0x0b, 0xd4, 0xf7, 0x0c, 0xf0, 0x02, 0x15, 0xf4, 0xfd, 0xf6, 0xcd,
  0xf6, 0xe2, 0xfe, 0x02, 0xfd, 0xfc, 0x02, 0xf2, 0xfe, 0x03, 0x06, 0x0b,
  0xfc, 0x04, 0xfa, 0x03, 0xfd, 0x06, 0x02, 0xf9, 0x13, 0xf8, 0x00, 0xfa,
  0x01, 0xfb, 0xc8, 0xc3, 0xfe, 0xe4, 0x06, 0x06, 0x0a, 0x0c, 0x05, 0x0a,
  0x02, 0xfc, 0xf8, 0xed, 0x1a, 0x0a, 0xfd, 0x07, 0xeb, 0x06, 0x0b, 0xf3,
  0x08, 0x00, 0x09, 0xe0, 0x00, 0x03, 0x0e, 0x03, 0x18, 0xfd, 0x02, 0x00,
  0x21, 0x0a, 0x05, 0x09, 0x0a, 0x14, 0xdf, 0xf2, 0xf9, 0xef, 0xf6, 0x0a,
  0xdf, 0x04, 0x06, 0xff, 0x06, 0x03, 0xfe, 0xf6, 0x02, 0xfe, 0xf5, 0x01,
  0xfc, 0xfe, 0x38, 0x04, 0x04, 0x08, 0xee, 0x0c, 0x02, 0x08, 0xfd, 0x02,
  0xff, 0xfc, 0xf4, 0x04, 0x09, 0xd2, 0x22, 0x14, 0x02, 0xe6, 0xfc, 0xfa,
  0xfd, 0x02, 0x04, 0x08, 0xf5, 0x13, 0x17, 0xfe, 0x06, 0xfa, 0xe0, 0xf7,
  0x01, 0xf0, 0xf7, 0xfe, 0x07, 0xfe, 0xfb, 0x06, 0xe2, 0x1d, 0x0a, 0x0a,
  0xfc, 0xf0, 0x02, 0xa5, 0xfc, 0xfa, 0x02, 0xfb, 0x07, 0x01, 0xe4, 0x0b,
  0x01, 0xf0, 0x01, 0xec, 0x0a, 0x05, 0x04, 0x11, 0x00, 0xea, 0xf7, 0xfd,
  0xfe, 0x05, 0x0c, 0xfa, 0xfe, 0xfd, 0xd3, 0x0b, 0x09, 0x04, 0x16, 0x14,
  0xea, 0xed, 0xfe, 0xfc, 0xec, 0x04, 0x0f, 0x09, 0xea, 0x03, 0xf1, 0xec,
  0xe3, 0x01, 0xfc, 0xfc, 0xed, 0x02, 0x04, 0x0b, 0x12, 0x07, 0xfb, 0x16,
  0x07, 0xe9, 0x11, 0xfc, 0xfd, 0x19, 0xf2, 0xdc, 0x15, 0xe1, 0xfe, 0xfd,
  0xff, 0x0a, 0xfd, 0xec, 0xff, 0xfe, 0xe9, 0x00, 0xf9, 0x0b, 0x01, 0xe2,
  0xeb, 0x0d, 0x09, 0x0c, 0xfc, 0xf2, 0xff, 0x07, 0x02, 0x0e, 0x02, 0xf9,
  0x06, 0x0b, 0xf7, 0x04, 0xff, 0xfe, 0xfd, 0x02, 0x01, 0x02, 0xfb, 0x07,
  0x08, 0xfb, 0x18, 0x04, 0x02, 0xff, 0x31, 0x06, 0x10, 0x00, 0xfe, 0x02,
  0xf6, 0x01, 0x07, 0x0b, 0x02, 0x02, 0x0e, 0x06, 0xfe, 0xed, 0xff, 0x12,
  0xc4, 0xe9, 0x02, 0xf6, 0xf9, 0xfe, 0x06, 0x00, 0x02, 0xf8, 0xec, 0x00,
  0x03, 0x04, 0xfc, 0xf5, 0xf9, 0xf8, 0xfb, 0xe9, 0xff, 0x04, 0xfd, 0x00,
  0x0b, 0x09, 0xf9, 0x03, 0x09, 0xfd, 0x02, 0xec, 0xe7, 0x01, 0x06, 0xfc,
  0xfb, 0xe4, 0xfe, 0x03, 0xfa, 0xfe, 0xfe, 0xfa, 0x12, 0x0d, 0x0a, 0xf8,
  0x0e, 0x00, 0xff, 0x07, 0xfc, 0xee, 0xf6, 0x05, 0x05, 0x05, 0x05, 0xf5,
  0x10, 0xfe, 0xfb, 0x07, 0xeb, 0x0d, 0x0c, 0x00, 0x00, 0xe7, 0x04, 0x04,
  0x02, 0x00, 0x07, 0x05, 0xf6, 0xff, 0x07, 0xfb, 0x06, 0xfc, 0xf0, 0x02,
  0x01, 0xd8, 0x03, 0x13, 0xf5, 0xfe, 0xfe, 0xff, 0xc6, 0xff, 0xde, 0x08,
  0xef, 0xf8, 0x02, 0x05, 0x03, 0xfd, 0x04, 0x0a, 0xfd, 0x05, 0x25, 0xfc,
  0x06, 0x12, 0xe9, 0xf7, 0x0f, 0x09, 0xe6, 0x17, 0x00, 0xfc, 0x17, 0xf7,
  0xe2, 0xe7, 0xfe, 0xf4, 0xfd, 0x09, 0x00, 0xf4, 0xfc, 0x2d, 0x17, 0xe3,
  0xf9, 0x01, 0x09, 0xd4, 0x04, 0x07, 0xfd, 0x08, 0xf6, 0xfd, 0x02, 0xfe,
  0xf6, 0x0f, 0x16, 0xff, 0xfe, 0x02, 0xc4, 0xfe, 0xfc, 0xbd, 0x0f, 0x06,
  0xd7, 0xfd, 0x0d, 0x09, 0x0b, 0x08, 0x03, 0x03, 0xe2, 0x09, 0xff, 0x04,
  0x06, 0xfe, 0x08, 0xe0, 0xe5, 0xfa, 0xda, 0xfb, 0xf9, 0x00, 0xfe, 0xf8,
  0xfa, 0xf9, 0xfc, 0x00, 0xfb, 0x08, 0x01, 0xcf, 0xfa, 0xed, 0x16, 0xf0,
  0x0b, 0xf7, 0x26, 0xfd, 0xfd, 0x03, 0x02, 0xfe, 0x03, 0x02, 0xd6, 0x02,
  0xfe, 0xcd, 0xef, 0x18, 0xfe, 0x0c, 0xfb, 0x07, 0x00, 0x00, 0xfa, 0x10,
  0x03, 0xf9, 0x00, 0xe5, 0xf2, 0x23, 0xfb, 0x03, 0x06, 0x08, 0xfe, 0xdd,
  0xff, 0x0d, 0x05, 0x08, 0x03, 0x00, 0xef, 0x00, 0x06, 0xfd, 0x01, 0xf8,
  0x06, 0xfa, 0x06, 0xe8, 0x0a, 0x04, 0xfc, 0xfe, 0x01, 0xd2, 0xfa, 0xf4,
  0xfc, 0x0c, 0xfe, 0x06, 0xf9, 0x0b, 0xff, 0x01, 0x02, 0xff, 0x1c, 0x0a,
  0xff, 0xf2, 0x05, 0x09, 0x0a, 0x02, 0xff, 0x0d, 0x0e, 0xfb, 0xf9, 0xf2,
  0x02, 0xff, 0x00, 0x00, 0x01, 0x18, 0xf2, 0x04, 0x06, 0x00, 0xee, 0xeb,
  0xf3, 0x14, 0x01, 0x09, 0xfe, 0xfa, 0x0c, 0x07, 0xd7, 0xfd, 0x07, 0xf8,
  0x36, 0x00, 0xfb, 0xe8, 0xce, 0x04, 0x01, 0xf5, 0x12, 0xf7, 0x06, 0xfe,
  0xf6, 0x18, 0x0a, 0xf6, 0x06, 0x01, 0x00, 0xe6, 0xfc, 0xfd, 0xf8, 0xff,
  0x08, 0xe6, 0x04, 0xf7, 0xfe, 0x03, 0x08, 0xfb, 0x06, 0x06, 0xf4, 0xf7,
  0xff, 0xfc, 0x01, 0xff, 0xff, 0x01, 0xfe, 0xfd, 0x01, 0xfd, 0xfe, 0xfe,
  0xfd, 0xfc, 0xfc, 0xfd, 0x02, 0x01, 0x03, 0xfe, 0x02, 0x02, 0x02, 0xfd,
  0xfd, 0x02, 0xfc, 0xfe, 0x00, 0xfc, 0x01, 0x02, 0xfd, 0xfd, 0xfd, 0xff,
  0xfe, 0xff, 0x02, 0x00, 0xff, 0xfb, 0xfd, 0xfd, 0xfe, 0x02, 0xfd, 0xff,
  0x01, 0x01, 0xfe, 0x00, 0xfc, 0x00, 0x02, 0xfe, 0xfd, 0xfb, 0xfd, 0xff,
  0xfd, 0x02, 0xfd, 0xfd, 0x00, 0xfd, 0xfd, 0x03, 0xfd, 0xfc, 0x02, 0x03,
  0x00, 0xfb, 0xfe, 0xfa, 0x00, 0x04, 0x02, 0xff, 0x01, 0xff, 0xfe, 0xfd,
  0xfe, 0xfe, 0xfe, 0xfc, 0xfe, 0xff, 0xfb, 0x01, 0xfe, 0x01, 0x03, 0xfb,
  0xfd, 0xff, 0x02, 0xfb, 0xfb, 0xfb, 0x01, 0xff, 0x01, 0xfd, 0xfc, 0xfe,
  0x02, 0xfc, 0xff, 0x03, 0x03, 0x01, 0xfe, 0xff, 0x03, 0xfd, 0x02, 0xfc,
  0xfe, 0xfe, 0x03, 0xff, 0x02, 0xfd, 0xff, 0x01, 0x05, 0xfc, 0x0d, 0x09,
  0xff, 0x03, 0x03, 0x00, 0xf8, 0x06, 0x02, 0xfc, 0xff, 0x0e, 0xf2, 0xf9,
  0x14, 0x02, 0x02, 0xff, 0x02, 0x05, 0xf8, 0x03, 0xe3, 0x0f, 0xff, 0xff,
  0xfd, 0xe5, 0xf4, 0x03, 0x02, 0x01, 0x00, 0xfc, 0xfc, 0xff, 0xfa, 0xf9,
  0xf8, 0x06, 0xf8, 0x00, 0x02, 0x00, 0xff, 0xf4, 0xf9, 0xf8, 0x01, 0xf6,
  0x05, 0x01, 0x08, 0x04, 0xfd, 0x00, 0x10, 0xf8, 0x0a, 0x05, 0x04, 0xfd,
  0x06, 0xf1, 0x07, 0xf0, 0xfd, 0xfa, 0xfd, 0x08, 0x00, 0xfd, 0xed, 0xfe,
  0xfd, 0x04, 0xfc, 0xf7, 0xfa, 0xf5, 0x02, 0xfd, 0xfe, 0x0c, 0xff, 0x04,
  0xfc, 0xfc, 0x03, 0x03, 0xfc, 0x08, 0xfb, 0x03, 0xfd, 0xfe, 0x02, 0xfe,
  0x03, 0x03, 0x0a, 0x02, 0x00, 0xfe, 0xff, 0x02, 0xf6, 0xff, 0xf5, 0x03,
  0xff, 0xfe, 0x01, 0x02, 0x01, 0xff, 0x02, 0xfc, 0xfd, 0x00, 0xf4, 0xfe,
  0xf9, 0x00, 0x01, 0xf6, 0xfe, 0xf7, 0xfe, 0x02, 0x04, 0x01, 0x02, 0x19,
  0xec, 0xc9, 0xfb, 0xff, 0x03, 0xfb, 0xf9, 0x07, 0xfe, 0xfc, 0x03, 0xeb,
  0xff, 0xf1, 0xea, 0xf6, 0x04, 0x04, 0x1e, 0x04, 0x0c, 0x09, 0xf6, 0xf7,
  0xfc, 0x1a, 0xfd, 0x0e, 0x02, 0xfe, 0xf2, 0xf8, 0xfc, 0x0d, 0xfe, 0xf4,
  0x05, 0xe8, 0x02, 0xfd, 0xfa, 0xff, 0xf8, 0xef, 0x03, 0x03, 0x11, 0xfd,
  0x01, 0x07, 0xf8, 0x09, 0x18, 0xd3, 0xfe, 0x90, 0x06, 0x01, 0x08, 0x27,
  0x01, 0x01, 0xfb, 0xeb, 0xf1, 0x00, 0x15, 0xf9, 0x08, 0x00, 0xfa, 0xf8,
  0xfb, 0x15, 0xff, 0x1e, 0xff, 0x19, 0xfe, 0x01, 0x07, 0x00, 0xdc, 0xe6,
  0x13, 0x0b, 0x00, 0xfb, 0xf8, 0x02, 0xfc, 0x0d, 0xfb, 0xec, 0xfd, 0x04,
  0x02, 0x09, 0x0b, 0xfe, 0x01, 0xfd, 0x02, 0x05, 0xf3, 0x08, 0x09, 0xff,
  0x01, 0x05, 0x01, 0x04, 0xfc, 0x01, 0x24, 0xee, 0xe0, 0xfe, 0x0b, 0x06,
  0xfc, 0xff, 0xfc, 0xfe, 0x01, 0xff, 0xfb, 0xfb, 0x03, 0xfd, 0x02, 0xfd,
  0x02, 0xff, 0xfe, 0x00, 0x01, 0x01, 0x00, 0xfe, 0x03, 0xfa, 0xfd, 0xfc,
  0xfb, 0xfe, 0x03, 0xfc, 0xfc, 0xff, 0xfe, 0xff, 0xfc, 0xfe, 0xfe, 0x01,
  0xfd, 0x03, 0xfd, 0x00, 0xfe, 0xfe, 0xfe, 0x00, 0x00, 0x01, 0x03, 0x00,
  0xff, 0x01, 0xfc, 0x00, 0x01, 0xfd, 0x00, 0x01, 0xff, 0x00, 0xfc, 0x02,
  0x04, 0xfd, 0x03, 0xfb, 0xfb, 0xfc, 0xff, 0xfe, 0x01, 0x02, 0xfc, 0xfc,
  0xff, 0xfb, 0xfd, 0xfb, 0xff, 0x01, 0x03, 0x02, 0xfd, 0x03, 0x01, 0xff,
  0xfd, 0x01, 0xfd, 0x00, 0x01, 0x03, 0x00, 0x01, 0xff, 0xff, 0x01, 0xfe,
  0xfd, 0x04, 0x03, 0xff, 0xfc, 0xff, 0xff, 0xfd, 0x00, 0x00, 0xfc, 0xfe,
  0x03, 0xfc, 0xfd, 0x01, 0xfd, 0x00, 0xff, 0x03, 0xfe, 0x02, 0xfd, 0x03,
  0xfe, 0xfe, 0x03, 0xfc, 0xff, 0xff, 0x04, 0xfe, 0x0e, 0xf8, 0x16, 0x06,
  0x02, 0x0c, 0x0c, 0xf9, 0xfa, 0xf8, 0xf7, 0x0a, 0x06, 0xe4, 0x0a, 0xfc,
  0xf4, 0xf7, 0xfe, 0xfe, 0x04, 0x03, 0x03, 0xe9, 0x0c, 0xf9, 0x1f, 0x01,
  0x0c, 0x07, 0x00, 0xfd, 0xff, 0xfc, 0xef, 0xff, 0x05, 0xfd, 0x06, 0x0c,
  0x04, 0x02, 0x0d, 0x0e, 0x04, 0xf2, 0x06, 0xfc, 0xf1, 0xf3, 0x01, 0x08,
  0x06, 0x02, 0x11, 0xf3, 0xfc, 0x09, 0xde, 0xfe, 0xfd, 0xef, 0x04, 0xfa,
  0x01, 0x11, 0xf3, 0x0f, 0xff, 0x0e, 0xf2, 0xfc, 0x02, 0x07, 0xfd, 0x05,
  0xfc, 0xfe, 0x00, 0x0c, 0x0b, 0x09, 0x03, 0xf7, 0x03, 0x04, 0x0f, 0x06,
  0x13, 0x01, 0xff, 0xfe, 0x01, 0xe7, 0xee, 0xe7, 0x01, 0x02, 0xfe, 0xfa,
  0x02, 0x0a, 0x03, 0xfb, 0x10, 0x06, 0x04, 0x03, 0x04, 0xfc, 0x0f, 0x11,
  0x07, 0x00, 0x01, 0xfc, 0x00, 0x06, 0xfd, 0x07, 0x01, 0xff, 0x06, 0xed,
  0x00, 0xf8, 0x01, 0xe8, 0x03, 0x01, 0x16, 0x05, 0x01, 0x05, 0x04, 0xf0,
  0xe8, 0x0c, 0xfa, 0xff, 0x15, 0x1f, 0xf4, 0xf4, 0x04, 0x0c, 0x02, 0x06,
  0x03, 0x02, 0xf6, 0x00, 0x03, 0x0b, 0x1a, 0x04, 0x0c, 0x02, 0xf3, 0xfc,
  0x04, 0x04, 0x0a, 0xe8, 0x10, 0x00, 0x08, 0xed, 0xa3, 0x9f, 0xf7, 0xbb,
  0x00, 0x0d, 0x04, 0x00, 0x01, 0xfc, 0xfb, 0x0c, 0x02, 0x00, 0x10, 0x10,
  0x03, 0xfe, 0x02, 0x01, 0x0f, 0x02, 0x00, 0xd8, 0x04, 0xfd, 0xb2, 0x06,
  0x02, 0xeb, 0xfe, 0xfc, 0xf6, 0xfc, 0x08, 0x03, 0x0d, 0x02, 0x08, 0x04,
  0x08, 0xf2, 0x01, 0x05, 0xfa, 0xee, 0xfc, 0x0c, 0xfe, 0xfe, 0x03, 0x01,
  0x05, 0xe8, 0x06, 0xff, 0xf5, 0xfd, 0x03, 0xfb, 0xd7, 0xf3, 0x08, 0x00,
  0x0a, 0xf3, 0x09, 0xf7, 0xde, 0xed, 0xf6, 0xe9, 0xfe, 0xde, 0x03, 0x03,
  0xf0, 0xfc, 0xfd, 0xf2, 0xfc, 0xfc, 0x07, 0xf5, 0xfd, 0xfa, 0xfe, 0x0b,
  0xf2, 0xf8, 0x04, 0x09, 0xff, 0xef, 0x06, 0xde, 0x0b, 0xed, 0x00, 0xf4,
  0x0b, 0x2e, 0x06, 0xf9, 0xfc, 0xfa, 0xfd, 0x15, 0x02, 0xfb, 0xb4, 0x02,
  0xfa, 0xad, 0xf3, 0xfe, 0x03, 0xf6, 0x0d, 0xf0, 0x08, 0xfc, 0xfb, 0xfc,
  0xfa, 0xff, 0xfa, 0x0c, 0xfb, 0xf0, 0xf1, 0x0c, 0x01, 0xfa, 0x02, 0xff,
  0x01, 0x03, 0x06, 0xf7, 0xd4, 0x01, 0x0c, 0x17, 0x00, 0x05, 0xfd, 0x0d,
  0x27, 0xec, 0x02, 0x04, 0xfb, 0x07, 0xda, 0xfa, 0xfd, 0x09, 0xfe, 0x04,
  0x03, 0x04, 0xf0, 0x01, 0x01, 0x01, 0xfd, 0x11, 0xca, 0xfb, 0x03, 0xfd,
  0x0d, 0xee, 0xfd, 0xe1, 0xf9, 0xfd, 0x0a, 0xe4, 0x07, 0x01, 0xfd, 0x05,
  0xe3, 0xff, 0xfd, 0xf8, 0xcb, 0xdf, 0x00, 0x04, 0xfa, 0xfc, 0xfc, 0x00,
  0x29, 0x18, 0x01, 0xf2, 0x09, 0xf7, 0x0a, 0x03, 0x00, 0xf9, 0x03, 0x07,
  0x03, 0xff, 0x81, 0xfa, 0xff, 0x02, 0xfa, 0xe0, 0x08, 0xff, 0x07, 0xff,
  0x00, 0x05, 0x00, 0xfb, 0xf1, 0xf7, 0x02, 0xf6, 0xea, 0x01, 0xea, 0x0e,
  0x0d, 0x00, 0x02, 0x01, 0x04, 0x08, 0x0f, 0xf3, 0x09, 0x01, 0x04, 0x03,
  0xf8, 0xf3, 0x21, 0x00, 0x05, 0x17, 0xed, 0x16, 0x0c, 0x01, 0x05, 0x0c,
  0x12, 0x07, 0x07, 0x03, 0x03, 0x02, 0xfc, 0x0a, 0xe1, 0x06, 0x07, 0xff,
  0x13, 0x02, 0x00, 0x06, 0x03, 0x04, 0xff, 0x00, 0xed, 0xfc, 0xfe, 0x0b,
  0x01, 0x05, 0x0e, 0x0f, 0x05, 0x05, 0xf8, 0x02, 0xe1, 0x04, 0xf0, 0x04,
  0x02, 0x02, 0x07, 0x09, 0x17, 0xf2, 0xff, 0xfd, 0xfe, 0x14, 0xfb, 0xfc,
  0x1b, 0xfe, 0x02, 0xf3, 0x0d, 0xe5, 0xf7, 0xc5, 0x03, 0x02, 0xfe, 0xf1,
  0xba, 0xff, 0xf8, 0x05, 0x01, 0xe7, 0xfe, 0xfe, 0x12, 0xc8, 0x01, 0x1f,
  0x18, 0x07, 0xfb, 0x03, 0xff, 0xf8, 0x03, 0xeb, 0xff, 0xfc, 0x08, 0xec,
  0x0a, 0xfc, 0x08, 0xee, 0x0d, 0x02, 0xfe, 0xf8, 0x03, 0x00, 0x04, 0x01,
  0xff, 0xf4, 0xfe, 0x00, 0x07, 0x1d, 0xff, 0x01, 0xfd, 0x04, 0x04, 0x05,
  0xfd, 0x00, 0x05, 0xf6, 0x00, 0x03, 0xf7, 0x01, 0x02, 0x07, 0x10, 0x06,
  0x01, 0xe3, 0x00, 0x04, 0x0a, 0xfc, 0x05, 0xfe, 0x09, 0x0f, 0xfc, 0xf7,
  0xfc, 0xfb, 0xfd, 0x05, 0x04, 0xfd, 0x02, 0x06, 0x0c, 0x02, 0xf5, 0x01,
  0xfd, 0xfb, 0xed, 0x03, 0x01, 0xfe, 0xff, 0x06, 0xf9, 0x0a, 0x03, 0x02,
  0xff, 0xf1, 0x0b, 0xfa, 0x00, 0x09, 0x09, 0xfb, 0x02, 0xfe, 0xfc, 0x0f,
  0x00, 0xfb, 0xfe, 0x07, 0xfc, 0xfb, 0xf9, 0x01, 0x04, 0x01, 0x08, 0x00,
  0x07, 0xfa, 0xf6, 0xf8, 0xf4, 0xfc, 0xff, 0x04, 0xf2, 0x06, 0x0b, 0x01,
  0x08, 0x18, 0x06, 0x08, 0xe8, 0xfb, 0x01, 0x09, 0x09, 0xf9, 0xfa, 0x04,
  0xf6, 0x03, 0x01, 0x00, 0x02, 0x03, 0x04, 0xfd, 0xf4, 0xfa, 0x0b, 0x0c,
  0xfa, 0xf9, 0xd2, 0x02, 0xfc, 0x06, 0x00, 0x1d, 0x03, 0xfb, 0x07, 0xff,
  0xef, 0x1c, 0xfe, 0x03, 0xfb, 0x01, 0x03, 0xf8, 0xfe, 0x01, 0x09, 0x03,
  0x04, 0xf9, 0xe2, 0x00, 0xfa, 0x03, 0x01, 0xf0, 0x24, 0x02, 0x04, 0xfb,
  0xfd, 0x03, 0xfc, 0x03, 0x1e, 0x0c, 0xf4, 0xf8, 0xff, 0x17, 0x00, 0xfc,
  0xf6, 0x06, 0xfa, 0xf9, 0xf0, 0xfe, 0xf7, 0x00, 0xfe, 0x01, 0x00, 0x20,
  0x18, 0x0a, 0xfd, 0x1f, 0xff, 0xf1, 0x0b, 0xf7, 0xff, 0x00, 0x00, 0xde,
  0x02, 0xfc, 0xf3, 0xf0, 0xf3, 0x03, 0xfd, 0x0a, 0x00, 0x1b, 0xfd, 0x05,
  0x09, 0xa5, 0x03, 0xef, 0x01, 0x00, 0xfe, 0xe9, 0x1a, 0x06, 0xfb, 0xfb,
  0x04, 0x01, 0x03, 0xef, 0x02, 0xe5, 0x07, 0xef, 0x09, 0xf8, 0xf9, 0x0a,
  0xe3, 0x00, 0xe4, 0xf5, 0xdd, 0x09, 0xf9, 0x02, 0xfa, 0x03, 0x02, 0x04,
  0xfe, 0xfc, 0x12, 0x03, 0x07, 0xf7, 0xf7, 0x13, 0x00, 0xfb, 0x22, 0x0d,
  0x00, 0x01, 0x0a, 0x0f, 0xfd, 0xf1, 0x02, 0x00, 0xee, 0x0e, 0xf5, 0x07,
  0x03, 0x0c, 0x01, 0x0d, 0x02, 0x02, 0x0f, 0xf7, 0x08, 0x00, 0xfb, 0xfd,
  0xf4, 0xf8, 0x02, 0xfd, 0xfd, 0xf9, 0xc9, 0x10, 0x05, 0x00, 0x10, 0xff,
  0xfc, 0xfb, 0xec, 0x06, 0xff, 0x08, 0x02, 0xf8, 0x00, 0x0d, 0xea, 0x1f,
  0xf6, 0x00, 0x0a, 0x09, 0x00, 0x00, 0xfe, 0xfa, 0xfb, 0x00, 0x00, 0xfd,
  0x00, 0x06, 0x26, 0x04, 0x02, 0xf8, 0xf5, 0xf8, 0xfe, 0xe9, 0xf7, 0x09,
  0xfe, 0xfd, 0x07, 0xf7, 0xe7, 0xc2, 0x02, 0xfa, 0xfc, 0x11, 0x03, 0x02,
  0x04, 0xfd, 0x0c, 0xf5, 0x14, 0xf9, 0xc4, 0x08, 0x03, 0x02, 0xfe, 0xfc,
  0xe9, 0x17, 0xf8, 0x0d, 0x05, 0x2b, 0x0b, 0xfd, 0x0b, 0xf2, 0x03, 0x09,
  0xf5, 0x13, 0x18, 0xfd, 0xdb, 0xf3, 0xfe, 0xf8, 0xfc, 0x03, 0xfa, 0x00,
  0xfc, 0xfd, 0x03, 0x05, 0xf3, 0x00, 0xf3, 0xf8, 0x02, 0xd6, 0x04, 0x30,
  0x07, 0xfc, 0x03, 0xfb, 0xf3, 0xe1, 0xfe, 0xe9, 0xfd, 0x01, 0x01, 0xf2,
  0xfe, 0xf9, 0x17, 0x04, 0x02, 0xf5, 0xeb, 0x02, 0xfd, 0xf1, 0xe7, 0xe7,
  0x02, 0x06, 0x08, 0x07, 0x07, 0x04, 0xf4, 0xfc, 0x10, 0x09, 0xd0, 0xfe,
  0xff, 0xfe, 0x01, 0xee, 0xfc, 0x0a, 0xfb, 0xcd, 0xf3, 0x01, 0xdb, 0x10,
  0x01, 0x13, 0xfc, 0x0f, 0x05, 0xfa, 0x03, 0xfd, 0xfe, 0xf0, 0x15, 0xf0,
  0x01, 0x0a, 0x0d, 0xfb, 0x02, 0x08, 0xf8, 0xf8, 0x09, 0x02, 0xeb, 0xf6,
  0xf5, 0x2a, 0x01, 0x04, 0x17, 0x0d, 0xfb, 0x04, 0xec, 0xfe, 0x02, 0x04,
  0x23, 0xc4, 0xf7, 0xfd, 0x04, 0xfc, 0xfe, 0xf4, 0xf6, 0xfb, 0xfb, 0x07,
  0x08, 0x0c, 0xe5, 0x0d, 0xfb, 0x05, 0xd2, 0x09, 0xf0, 0x08, 0xd5, 0xfe,
  0xf5, 0xfc, 0xfe, 0x01, 0xff, 0xfe, 0xf1, 0xf8, 0xfb, 0xff, 0xed, 0x10,
  0xff, 0x04, 0x05, 0xf6, 0x04, 0x02, 0x0a, 0x0f, 0x05, 0xdb, 0xfb, 0x00,
  0xff, 0x01, 0x00, 0x08, 0xfb, 0xff, 0x00, 0xe1, 0x03, 0xfe, 0x07, 0x06,
  0xf9, 0x12, 0x1b, 0x01, 0x03, 0xee, 0x00, 0x00, 0xf5, 0x1b, 0xfc, 0x13,
  0x00, 0xfe, 0x00, 0x04, 0xf4, 0xfa, 0x07, 0xf9, 0x01, 0xfe, 0x03, 0x01,
  0xfd, 0xf7, 0x05, 0xf9, 0x12, 0xfe, 0x00, 0x00, 0x00, 0xfa, 0xfc, 0x09,
  0xdf, 0xf8, 0xfe, 0x27, 0xf9, 0x0b, 0xf7, 0x0d, 0x02, 0x01, 0xe6, 0xea,
  0x01, 0x08, 0xfe, 0xf7, 0xfe, 0x02, 0x0b, 0x03, 0x33, 0xf7, 0x00, 0x05,
  0x00, 0x0a, 0x02, 0xfd, 0xd8, 0xfd, 0x13, 0x05, 0xf1, 0xff, 0x18, 0xf8,
  0x02, 0xff, 0x02, 0xef, 0x27, 0xfc, 0xf4, 0x0c, 0xf3, 0xf8, 0x13, 0x12,
  0xf6, 0xf9, 0xf3, 0xfd, 0xe0, 0xf9, 0xfd, 0x03, 0x0e, 0xfe, 0xfe, 0xfd,
  0xfe, 0x01, 0x0d, 0x0f, 0xf6, 0xf9, 0x0f, 0xec, 0x05, 0xfc, 0xe6, 0xe5,
  0xfe, 0x0c, 0x08, 0xde, 0xfe, 0x03, 0x05, 0xf5, 0xf3, 0xe0, 0xe8, 0xee,
  0xfc, 0xf9, 0xfc, 0xfe, 0xfc, 0x06, 0x0f, 0xf8, 0xfd, 0xf4, 0x34, 0x01,
  0x04, 0xef, 0x0c, 0x04, 0x18, 0x14, 0x04, 0x1c, 0x03, 0x01, 0xec, 0x04,
  0x05, 0x05, 0xb3, 0x01, 0x04, 0xfd, 0xfe, 0xfe, 0x02, 0xfe, 0xf6, 0x20,
  0x0c, 0xfd, 0xe5, 0xf6, 0xfd, 0x0a, 0x07, 0xfd, 0x03, 0xf2, 0x00, 0xf9,
  0xfe, 0x0d, 0xee, 0xf8, 0x02, 0xe4, 0xfe, 0xe3, 0x06, 0xf3, 0x0b, 0xf8,
  0xeb, 0xff, 0xfa, 0x05, 0x0b, 0xff, 0xff, 0x04, 0x1a, 0xe6, 0xe3, 0xfa,
  0x26, 0x02, 0xfe, 0xee, 0xff, 0xe3, 0xf1, 0xfd, 0xe4, 0x02, 0x01, 0xdf,
  0x09, 0xfc, 0x03, 0xfc, 0x08, 0xf7, 0x00, 0x04, 0xf4, 0xfc, 0xf6, 0x10,
  0x0b, 0x15, 0xcb, 0x02, 0x03, 0xeb, 0x00, 0xf5, 0x02, 0xfd, 0x20, 0xf1,
  0xfd, 0x05, 0xf4, 0x07, 0x01, 0x01, 0xd2, 0x01, 0xfc, 0x0c, 0xe6, 0xee,
  0x01, 0xff, 0x17, 0xfb, 0xf8, 0x04, 0xce, 0x0d, 0x02, 0xfd, 0xff, 0xfb,
  0x02, 0x09, 0xeb, 0xef, 0x0b, 0x0c, 0xfc, 0xfe, 0xf2, 0xfd, 0x02, 0x09,
  0xff, 0xda, 0x03, 0xff, 0xf4, 0x04, 0xea, 0x00, 0xfc, 0xfe, 0xfa, 0xec,
  0x03, 0x10, 0x02, 0x09, 0x00, 0xf5, 0xfd, 0xfb, 0x0f, 0x01, 0x1a, 0xe4,
  0x04, 0x01, 0x05, 0x06, 0x01, 0x05, 0x00, 0x0a, 0x09, 0x02, 0xfd, 0xef,
  0x01, 0xf3, 0xfa, 0x01, 0xfa, 0x05, 0xf4, 0xed, 0x04, 0xff, 0xf7, 0xe7,
  0xda, 0xdf, 0x05, 0xfe, 0x14, 0xf3, 0xf3, 0xf8, 0x10, 0x04, 0xfa, 0xf8,
  0xeb, 0x10, 0x12, 0xfa, 0xfb, 0x03, 0xfe, 0xf9, 0xee, 0xfb, 0x0a, 0xfe,
  0xe8, 0xfe, 0x03, 0xe9, 0xfa, 0xe3, 0xf9, 0x05, 0xdc, 0xbd, 0x09, 0xff,
  0xa9, 0xfc, 0x04, 0xf5, 0x03, 0xfd, 0x04, 0x02, 0x06, 0xee, 0x08, 0x04,
  0x08, 0xfe, 0x12, 0xf8, 0xfd, 0xfd, 0x0a, 0x1d, 0xf7, 0x07, 0x09, 0x01,
  0xee, 0xfc, 0x12, 0xfd, 0xf9, 0x05, 0x03, 0x06, 0x04, 0xfc, 0xfe, 0xf1,
  0x07, 0xfe, 0xdf, 0xff, 0x07, 0x0a, 0x06, 0xf4, 0x08, 0x1c, 0x0f, 0x01,
  0x0c, 0x02, 0xef, 0xf3, 0x03, 0xe4, 0xfc, 0xff, 0x02, 0xfc, 0xfe, 0x01,
  0xff, 0xf6, 0x00, 0xdd, 0xdf, 0xff, 0xda, 0xf8, 0x02, 0x0d, 0xff, 0x01,
  0x1a, 0x01, 0x01, 0xf8, 0xfb, 0x08, 0xfb, 0xfe, 0x02, 0xf9, 0x0f, 0x01,
  0x09, 0x15, 0x0f, 0xfa, 0xed, 0xff, 0xee, 0x0a, 0xfe, 0x14, 0xff, 0xff,
  0xfc, 0xeb, 0xe2, 0xfc, 0xe0, 0x01, 0x00, 0xde, 0x03, 0xf3, 0x01, 0x08,
  0x02, 0x04, 0x03, 0xfd, 0x12, 0x00, 0x06, 0xce, 0xff, 0x13, 0xf7, 0xfe,
  0xf8, 0xf2, 0xfe, 0x13, 0x0d, 0x21, 0xe3, 0xfc, 0xf4, 0x01, 0x00, 0xff,
  0xfc, 0x04, 0x19, 0xfd, 0xfa, 0xfd, 0xf0, 0xff, 0x07, 0xfe, 0xdc, 0x04,
  0x02, 0xea, 0x08, 0x06, 0x0d, 0xf9, 0x00, 0xf3, 0xf9, 0x13, 0x06, 0x00,
  0x04, 0x02, 0xfc, 0x1d, 0x02, 0xf4, 0x0f, 0xff, 0xff, 0x0a, 0x20, 0x00,
  0x08, 0xfa, 0x0b, 0x02, 0x0b, 0x0f, 0x01, 0xdc, 0xcb, 0x01, 0xf8, 0x10,
  0xfa, 0xfe, 0x2a, 0xfe, 0xff, 0xf6, 0xfd, 0x02, 0x01, 0x03, 0xd7, 0xeb,
  0xfd, 0xff, 0xf1, 0xff, 0x03, 0xf3, 0x01, 0xfc, 0xfa, 0xf6, 0x01, 0xed,
  0x07, 0x02, 0xf9, 0xfd, 0x00, 0xe4, 0xf5, 0xfa, 0xfd, 0x06, 0x21, 0x01,
  0x05, 0x01, 0xf1, 0x05, 0x20, 0x9d, 0x03, 0xfe, 0xf7, 0x18, 0x0b, 0x00,
  0xf1, 0xff, 0x02, 0xfe, 0xe4, 0x13, 0xf1, 0x00, 0x09, 0x00, 0x03, 0x00,
  0xfd, 0xf2, 0xfe, 0x09, 0x09, 0x04, 0x00, 0x05, 0x06, 0xfb, 0xfc, 0x00,
  0xfe, 0xf8, 0xf7, 0xfa, 0x01, 0x00, 0x01, 0x02, 0x00, 0xfd, 0x1c, 0xfd,
  0xfd, 0xf0, 0x0a, 0xeb, 0xfe, 0xed, 0x06, 0xf8, 0x01, 0x01, 0x0a, 0x0b,
  0xfa, 0x03, 0x06, 0xff, 0x03, 0xdf, 0xeb, 0x17, 0x00, 0x04, 0x03, 0xbb,
  0xfc, 0x0b, 0x01, 0xfd, 0x07, 0x13, 0x30, 0xfd, 0xfd, 0x00, 0xf2, 0x01,
  0xf9, 0x25, 0xf9, 0xef, 0xf6, 0xff, 0x08, 0xfd, 0xc8, 0x05, 0x11, 0xf7,
  0xff, 0xfe, 0xff, 0xf9, 0x06, 0x02, 0xf7, 0xfa, 0xc6, 0x03, 0xde, 0xf8,
  0x01, 0xe9, 0xff, 0x13, 0x05, 0x09, 0xff, 0xf4, 0x01, 0xfd, 0xfa, 0x03,
  0xff, 0xe3, 0xf8, 0x0b, 0x07, 0xf7, 0x0c, 0xf1, 0x01, 0x03, 0x0f, 0x0f,
  0x03, 0xc2, 0x04, 0x14, 0x11, 0x18, 0x05, 0xed, 0xfd, 0xfe, 0xf6, 0x09,
  0x0d, 0xed, 0x09, 0xfb, 0xef, 0x02, 0xfe, 0xff, 0xf8, 0xeb, 0x08, 0x10,
  0xfb, 0xfb, 0x03, 0x0a, 0x0c, 0xea, 0xfc, 0xed, 0xf7, 0x0e, 0xd9, 0xff,
  0xf0, 0x03, 0x02, 0xfe, 0xfd, 0x02, 0x16, 0xff, 0x03, 0xf2, 0x0d, 0x06,
  0xff, 0xfd, 0xff, 0x06, 0xfc, 0x07, 0x00, 0x02, 0x04, 0x0b, 0x04, 0x08,
  0xfd, 0xf1, 0xeb, 0xf8, 0xf9, 0xf2, 0x04, 0x01, 0x00, 0x06, 0xec, 0xde,
  0x02, 0x04, 0x12, 0x00, 0x08, 0x06, 0xf4, 0x02, 0x02, 0x0d, 0x06, 0xef,
  0x0c, 0xfc, 0x0a, 0x07, 0x01, 0xfc, 0x07, 0x00, 0xfe, 0x00, 0xff, 0x10,
  0x00, 0xfc, 0x02, 0xde, 0x06, 0x02, 0x0a, 0xf7, 0x02, 0x03, 0xf9, 0xfb,
  0x02, 0xfa, 0x00, 0xf4, 0x02, 0x11, 0x06, 0x19, 0xff, 0x00, 0x07, 0xfc,
  0x03, 0xfd, 0xf7, 0xf9, 0xff, 0xfe, 0x08, 0x1d, 0x08, 0xf5, 0x00, 0x0b,
  0x04, 0x03, 0x02, 0x01, 0x09, 0xfe, 0x03, 0xf9, 0xf4, 0xf2, 0x0c, 0xfa,
  0x07, 0xfd, 0xff, 0xf1, 0x05, 0xf9, 0xf3, 0xff, 0x04, 0xff, 0xfd, 0x00,
  0xdd, 0xfe, 0xfc, 0xfc, 0x0c, 0x0d, 0xf0, 0xff, 0xf9, 0xff, 0xfd, 0xfc,
  0xfc, 0xfe, 0xe8, 0xeb, 0xeb, 0x06, 0x04, 0x02, 0xfd, 0xfb, 0xfc, 0x00,
  0xfe, 0xfd, 0x00, 0xfd, 0xfd, 0xfc, 0xfe, 0xff, 0x03, 0x03, 0xfc, 0xff,
  0xfb, 0xfe, 0x02, 0x02, 0x00, 0xfe, 0xfc, 0xfe, 0xfd, 0x02, 0xfc, 0xff,
  0xfc, 0xfb, 0x00, 0x03, 0x03, 0xfe, 0xfe, 0x02, 0xff, 0x02, 0xfb, 0xff,
  0x01, 0x00, 0xfd, 0xff, 0x04, 0xff, 0x03, 0x00, 0xff, 0xfb, 0xfd, 0x01,
  0xfb, 0xfc, 0x01, 0xfc, 0xfc, 0xfb, 0xfb, 0xff, 0xfd, 0x02, 0xfc, 0x01,
  0x01, 0x02, 0xfc, 0x02, 0xfc, 0x02, 0x03, 0xfc, 0xfc, 0xfe, 0xfe, 0xff,
  0xfc, 0xfd, 0x00, 0x03, 0xfe, 0xfe, 0x03, 0xfb, 0x02, 0xfb, 0x03, 0xfc,
  0x02, 0x00, 0xfe, 0x04, 0xfd, 0xfc, 0xfd, 0x00, 0x02, 0x00, 0x02, 0xfe,
  0x01, 0xff, 0xfe, 0x02, 0xff, 0xfc, 0x00, 0x01, 0x00, 0x01, 0x01, 0xfd,
  0x02, 0x00, 0xfe, 0xfe, 0x02, 0x01, 0x03, 0xfc, 0xfc, 0xff, 0x02, 0x00,
  0x02, 0x00, 0xff, 0xfe, 0x07, 0xf0, 0x0e, 0xfc, 0xfc, 0x00, 0x05, 0x31,
  0xf1, 0xeb, 0xfe, 0x03, 0xfe, 0xf6, 0xf4, 0xef, 0x05, 0xfb, 0xfe, 0xd3,
  0x03, 0xfb, 0xdf, 0xfc, 0xfc, 0x07, 0x01, 0x01, 0x05, 0xe2, 0x04, 0x01,
  0x18, 0xf5, 0x0b, 0xf7, 0xe2, 0x04, 0x00, 0x04, 0xea, 0x04, 0x10, 0xff,
  0x01, 0xf4, 0x04, 0xfd, 0xf6, 0x01, 0xf3, 0xfa, 0x07, 0x04, 0xeb, 0x04,
  0x03, 0xf0, 0x01, 0xee, 0x15, 0x01, 0xfd, 0xde, 0xfe, 0x03, 0xfe, 0x07,
  0x00, 0xff, 0xf5, 0xff, 0xa4, 0xfe, 0xc8, 0xfc, 0xff, 0x04, 0xf7, 0xf9,
  0xfe, 0xe5, 0x02, 0xf1, 0xfb, 0x0f, 0xef, 0x02, 0xf4, 0xff, 0xfa, 0xd5,
  0xef, 0x02, 0xfa, 0xfd, 0x01, 0x01, 0x00, 0x19, 0xfb, 0xf3, 0x00, 0xfd,
  0x02, 0xfd, 0xff, 0x0f, 0xf8, 0xd9, 0xf3, 0x0f, 0xfd, 0x05, 0xfd, 0x00,
  0xfd, 0x04, 0xfc, 0xe3, 0x04, 0x02, 0x08, 0xf7, 0xcb, 0xff, 0x08, 0xed,
  0xff, 0x01, 0xfb, 0xfe, 0xfe, 0xfc, 0xff, 0xfe, 0xfd, 0xfc, 0xfc, 0xfd,
  0xfd, 0xff, 0x04, 0xfd, 0xfd, 0xfd, 0x04, 0xfc, 0x00, 0xfb, 0xff, 0xfc,
  0xfc, 0xfc, 0xff, 0x04, 0xff, 0xfd, 0xff, 0xfd, 0xfc, 0xfd, 0x00, 0x01,
  0x01, 0x00, 0xfe, 0xfc, 0xfd, 0xfd, 0x01, 0x01, 0xfe, 0xfc, 0x01, 0x00,
  0xff, 0xfe, 0x01, 0x02, 0x00, 0xfe, 0xfe, 0x03, 0x03, 0xff, 0x02, 0x00,
  0xfd, 0xfc, 0xfd, 0xff, 0xfd, 0x02, 0xfd, 0xfd, 0xfe, 0xff, 0x03, 0x00,
  0xfd, 0x02, 0xfe, 0xfd, 0xfe, 0x01, 0xfc, 0x03, 0xfd, 0x01, 0xff, 0x00,
  0x02, 0xff, 0xfe, 0xfe, 0x02, 0xfc, 0x00, 0x03, 0x01, 0xfe, 0xfe, 0x04,
  0xfd, 0x02, 0x00, 0x02, 0xfc, 0x02, 0x03, 0xfd, 0x02, 0x03, 0x00, 0x03,
  0xfc, 0xfe, 0x02, 0x04, 0xff, 0xfc, 0x02, 0xff, 0xfc, 0x00, 0x04, 0x00,
  0xff, 0x03, 0xfe, 0x00, 0x04, 0xfe, 0x00, 0x01, 0x07, 0x04, 0xfc, 0xf5,
  0xfc, 0xed, 0x02, 0x0e, 0x00, 0xfd, 0x02, 0xf9, 0xfa, 0xd2, 0x08, 0xf5,
  0xfc, 0x07, 0x04, 0x10, 0x00, 0x05, 0xfd, 0xfe, 0x01, 0x90, 0xf7, 0xfd,
  0xfc, 0x01, 0xf6, 0x07, 0xfe, 0x08, 0x01, 0x00, 0xe5, 0xfd, 0xf2, 0xf3,
  0x14, 0xea, 0xf7, 0xff, 0xff, 0x05, 0xfd, 0x07, 0xf9, 0x02, 0x11, 0xcb,
  0xe0, 0x02, 0xeb, 0xfc, 0x03, 0xff, 0xfe, 0x05, 0x1c, 0xee, 0xfd, 0xfb,
  0xfd, 0x11, 0xe6, 0xfb, 0x04, 0x0c, 0x06, 0xfb, 0xfd, 0x11, 0x13, 0x0c,
  0xf1, 0xfe, 0xdb, 0x0a, 0x03, 0x0f, 0xff, 0xf8, 0x1d, 0xcc, 0x01, 0xf4,
  0x00, 0xfd, 0x08, 0xa6, 0xf6, 0x16, 0xf8, 0x01, 0x0b, 0xfd, 0xfd, 0x0a,
  0x19, 0xfe, 0xfd, 0x0b, 0x04, 0x01, 0xf1, 0x06, 0xf6, 0xed, 0xf7, 0xea,
  0x9f, 0x10, 0xf0, 0x03, 0xf4, 0x04, 0xff, 0x07, 0x03, 0x00, 0x12, 0x0c,
  0x07, 0xfe, 0xe5, 0x13, 0x08, 0xff, 0x2b, 0xf6, 0xff, 0x02, 0xfd, 0xba,
  0x0b, 0x12, 0xf9, 0xf6, 0xfb, 0xdc, 0xc6, 0xf4, 0x03, 0x00, 0xff, 0xf8,
  0x00, 0x06, 0x06, 0xfe, 0x02, 0xee, 0xe3, 0x04, 0x00, 0x06, 0xd5, 0x04,
  0xd4, 0xf1, 0x04, 0xe6, 0x18, 0x00, 0xf6, 0xeb, 0x0e, 0xee, 0xf6, 0xf8,
  0x03, 0x04, 0x00, 0xfe, 0x04, 0x00, 0xfe, 0x28, 0xe6, 0x02, 0xd1, 0x05,
  0xfe, 0xf5, 0x00, 0x26, 0x0a, 0x05, 0x04, 0x0f, 0xfc, 0xf9, 0xf1, 0x07,
  0xff, 0x02, 0xfe, 0x01, 0xf2, 0x01, 0xf2, 0x04, 0x01, 0xff, 0x0d, 0x10,
  0x0e, 0x18, 0xfd, 0xdc, 0x0b, 0x0d, 0xf7, 0xf4, 0x1f, 0x01, 0x00, 0xd0,
  0xf1, 0x06, 0x0a, 0xfa, 0xdd, 0xfe, 0x03, 0x05, 0xff, 0xf1, 0x01, 0x09,
  0x0b, 0x14, 0xfe, 0xfa, 0xf8, 0xdc, 0x03, 0xfe, 0x07, 0x07, 0xf8, 0xff,
  0xf1, 0xf5, 0xfe, 0xfb, 0x00, 0xff, 0x16, 0x08, 0xef, 0xfc, 0xf9, 0x01,
  0x02, 0xf9, 0xf6, 0x02, 0x00, 0x01, 0xfc, 0x01, 0xfe, 0xff, 0x00, 0xff,
  0xfb, 0x08, 0xfa, 0x04, 0x07, 0x06, 0xfe, 0x03, 0xfe, 0x04, 0xfe, 0x0f,
  0xe2, 0x01, 0xf4, 0xfe, 0xfc, 0xff, 0xfd, 0x06, 0x09, 0x04, 0x04, 0x00,
  0xff, 0xfd, 0xf8, 0xf9, 0x0a, 0x00, 0xf1, 0xf8, 0x02, 0x07, 0x00, 0xf3,
  0xfb, 0x01, 0x01, 0x03, 0xff, 0x04, 0x05, 0x06, 0x00, 0x02, 0x08, 0x08,
  0x06, 0x08, 0xfb, 0x03, 0x01, 0xf9, 0x00, 0xe3, 0x01, 0xf9, 0x0c, 0xfc,
  0xff, 0xfe, 0x0d, 0xfa, 0xfb, 0x04, 0x02, 0xf1, 0xfc, 0xff, 0x03, 0x06,
  0x03, 0xf9, 0xf6, 0xfa, 0xfe, 0x01, 0xfd, 0x01, 0xfe, 0x03, 0x0a, 0x03,
  0xfb, 0x01, 0xfe, 0xfc, 0xfe, 0xfc, 0x11, 0xfe, 0x0a, 0x00, 0xee, 0x06,
  0x07, 0xfa, 0xe9, 0x03, 0xf9, 0x08, 0x02, 0x00, 0x06, 0x06, 0x03, 0x01,
  0xff, 0x04, 0xff, 0xfd, 0xfd, 0xfb, 0xf7, 0x02, 0xfa, 0x01, 0xfa, 0x10,
  0x04, 0x09, 0xf5, 0xea, 0x08, 0x04, 0x00, 0xfc, 0xfd, 0xff, 0x13, 0xf2,
  0xf8, 0x03, 0x02, 0x15, 0xfd, 0xf5, 0x0f, 0xfd, 0x01, 0x08, 0x14, 0x01,
  0xfa, 0x01, 0x06, 0x06, 0xf5, 0x0d, 0xeb, 0x0b, 0xf7, 0x04, 0x04, 0x03,
  0xff, 0x04, 0x0c, 0xfd, 0x01, 0xfb, 0x03, 0xfb, 0x07, 0xf9, 0xe5, 0xf7,
  0x07, 0xfb, 0xfc, 0x03, 0xfe, 0xee, 0x02, 0xfd, 0xe7, 0x00, 0xff, 0xd7,
  0x00, 0xf5, 0x08, 0xf7, 0xff, 0xf9, 0xfb, 0x06, 0x0a, 0xea, 0xfd, 0xf6,
  0x0a, 0x00, 0xfd, 0x07, 0x24, 0xcf, 0x02, 0xf2, 0x05, 0x0b, 0x03, 0xfc,
  0x07, 0x00, 0x0b, 0xf0, 0x01, 0x04, 0x11, 0x06, 0x03, 0x04, 0xfc, 0x08,
  0x02, 0x00, 0x02, 0x01, 0xf2, 0x04, 0x04, 0x04, 0xf6, 0xfb, 0x04, 0xfd,
  0x0a, 0x04, 0x09, 0xfd, 0xfa, 0xf8, 0x04, 0x06, 0xfe, 0xfd, 0xfe, 0xff,
  0xe9, 0x0b, 0x14, 0xf9, 0x09, 0xfc, 0x01, 0x01, 0x02, 0x04, 0xfa, 0xff,
  0x02, 0x07, 0x05, 0xff, 0xfd, 0x08, 0xf8, 0xfe, 0x08, 0x06, 0x01, 0x04,
  0x01, 0x06, 0xfd, 0x08, 0xe9, 0x0c, 0xfc, 0x00, 0xff, 0xec, 0x09, 0xe7,
  0x03, 0xfe, 0xfe, 0xff, 0xfc, 0x01, 0xf5, 0xfd, 0xfe, 0x03, 0xf7, 0x02,
  0x03, 0xfb, 0x00, 0xf9, 0x05, 0xff, 0x04, 0x01, 0x02, 0x01, 0x04, 0x05,
  0x01, 0xfe, 0x09, 0xfc, 0x0f, 0x09, 0x04, 0x01, 0x02, 0xe6, 0x04, 0xfa,
  0x03, 0xfe, 0x01, 0x08, 0xfb, 0x02, 0xf9, 0xf8, 0xfe, 0x01, 0x01, 0xfb,
  0x03, 0xff, 0x02, 0x00, 0x02, 0x03, 0xfb, 0x00, 0xf8, 0x01, 0x07, 0x04,
  0xe9, 0x02, 0x07, 0xff, 0xfa, 0x04, 0xfd, 0xff, 0x00, 0xfa, 0x13, 0xfe,
  0x01, 0x03, 0x01, 0x00, 0x00, 0xf7, 0x05, 0x02, 0x00, 0x00, 0x01, 0x03,
  0x03, 0x01, 0xfe, 0x03, 0xfe, 0x01, 0x03, 0xfc, 0xff, 0xff, 0xff, 0xfd,
  0x03, 0x02, 0xf5, 0x07, 0x03, 0x0e, 0x01, 0x06, 0xf6, 0x02, 0xe7, 0xfd,
  0x02, 0xe8, 0x38, 0xfb, 0x00, 0xfa, 0xfc, 0xed, 0xfe, 0xfb, 0xff, 0xfb,
  0xf3, 0x18, 0x24, 0xfe, 0xfa, 0xff, 0x15, 0xfe, 0x0c, 0x02, 0xfd, 0x06,
  0x07, 0x04, 0xfb, 0x0d, 0xfe, 0x11, 0x05, 0x08, 0x03, 0xeb, 0xfe, 0x02,
  0xfb, 0x00, 0x0b, 0x1a, 0xcc, 0xfe, 0x16, 0x12, 0xfe, 0xef, 0xf8, 0x16,
  0xed, 0xfc, 0x02, 0xc6, 0x02, 0xfe, 0xf0, 0x08, 0x06, 0x13, 0x06, 0x04,
  0x11, 0xfd, 0xfb, 0x0d, 0xff, 0x00, 0x18, 0x00, 0xd9, 0xf8, 0xfe, 0xf7,
  0xd0, 0xf4, 0x01, 0x10, 0x05, 0xff, 0xf8, 0xf1, 0xf9, 0x03, 0xfe, 0x00,
  0x01, 0xff, 0x03, 0xfb, 0x29, 0x08, 0xff, 0x00, 0x06, 0x0b, 0x08, 0xf3,
  0xf3, 0xfb, 0xfd, 0xda, 0x1a, 0xf4, 0x0c, 0x03, 0xfc, 0xfe, 0x00, 0xe5,
  0x00, 0x01, 0xe1, 0xfa, 0xfb, 0x04, 0x0c, 0xed, 0xf9, 0xfc, 0x30, 0x10,
  0xff, 0x06, 0xfd, 0xe2, 0xfb, 0x07, 0xf7, 0xf9, 0xfa, 0x35, 0x0e, 0xf3,
  0x03, 0xf9, 0x04, 0x05, 0x00, 0xf9, 0x0e, 0x08, 0xfc, 0xe7, 0x13, 0x02,
  0x04, 0xfa, 0x03, 0x02, 0x17, 0x08, 0x0f, 0xff, 0x07, 0x03, 0x08, 0x04,
  0xf4, 0x05, 0x02, 0xfb, 0xff, 0xfd, 0x01, 0xfa, 0xfb, 0x05, 0xfa, 0x0b,
  0x0a, 0xfe, 0x06, 0x06, 0xfc, 0xe0, 0xfb, 0x0f, 0xd5, 0xff, 0x01, 0xf6,
  0xfa, 0x03, 0x15, 0x10, 0x00, 0x04, 0x03, 0x06, 0x05, 0xfb, 0xf3, 0x05,
  0x03, 0x02, 0x06, 0x0e, 0xd5, 0x08, 0xfe, 0xf6, 0xd3, 0xfd, 0x14, 0x05,
  0x0b, 0x03, 0xfb, 0xf1, 0x00, 0xf6, 0x0d, 0x04, 0xf2, 0x04, 0xfe, 0xf9,
  0x06, 0x04, 0xff, 0xf3, 0xf8, 0xfb, 0x07, 0x03, 0xf3, 0xfa, 0xfe, 0xd6,
  0x11, 0x09, 0x08, 0xfd, 0x0a, 0xf7, 0xfd, 0xff, 0xff, 0x04, 0xf9, 0x06,
  0xea, 0x00, 0xef, 0xf5, 0xfb, 0xfd, 0x10, 0xf2, 0x02, 0xfb, 0xfc, 0x00,
  0xf3, 0xfb, 0xf0, 0x08, 0x03, 0xfc, 0xfd, 0x03, 0xfc, 0x07, 0xfd, 0x04,
  0x03, 0xfd, 0xf7, 0x04, 0xfc, 0xf5, 0xf8, 0xff, 0x08, 0x0d, 0xde, 0x12,
  0x04, 0x09, 0xf5, 0x04, 0xab, 0xfd, 0xf6, 0xf6, 0x1a, 0xf8, 0xec, 0xf7,
  0x04, 0xf6, 0xfe, 0x07, 0xfa, 0x07, 0x11, 0x05, 0x0f, 0xfe, 0x10, 0x04,
  0x04, 0x0b, 0xfd, 0x04, 0xe7, 0xf0, 0x03, 0x0f, 0xff, 0x14, 0x06, 0xfe,
  0xff, 0x10, 0xfd, 0xfc, 0xed, 0xfe, 0xf7, 0x06, 0xfe, 0x02, 0x02, 0xfa,
  0x11, 0xe1, 0xfc, 0x05, 0xfc, 0x02, 0xfa, 0xec, 0x04, 0xfd, 0x00, 0xe6,
  0x04, 0x0e, 0xe1, 0x0b, 0xfa, 0x04, 0x03, 0xff, 0x08, 0xf1, 0xf5, 0xfc,
  0xf7, 0xe8, 0xfd, 0x0b, 0xdc, 0xff, 0x0c, 0xf4, 0xf3, 0xfe, 0x08, 0x02,
  0x05, 0xff, 0xfe, 0x0d, 0x02, 0x04, 0x17, 0x0c, 0x0b, 0x05, 0xfd, 0xe2,
  0x00, 0xfa, 0x03, 0x14, 0x04, 0x01, 0x08, 0x0c, 0x04, 0xf3, 0xf9, 0xf7,
  0x09, 0x27, 0x21, 0xfd, 0x00, 0x09, 0xfd, 0x16, 0xfd, 0xf1, 0xf9, 0xf8,
  0x01, 0x19, 0xff, 0x05, 0xff, 0x01, 0x0d, 0xfd, 0x08, 0x08, 0xf7, 0x00,
  0xfb, 0xfe, 0x03, 0x06, 0xff, 0xfb, 0xf1, 0xfa, 0xfe, 0x01, 0x02, 0xfd,
  0x04, 0xfa, 0xde, 0x01, 0xfc, 0x03, 0x23, 0x0d, 0x02, 0xe6, 0xf8, 0xf8,
  0xfe, 0xf5, 0xfe, 0xe5, 0x00, 0x04, 0xf6, 0xf0, 0xff, 0xda, 0x0c, 0xf8,
  0x06, 0xf8, 0x17, 0x01, 0x0b, 0xff, 0xdf, 0x0e, 0x16, 0xf7, 0x01, 0xcc,
  0x02, 0x06, 0xff, 0xf4, 0x03, 0x05, 0x0a, 0xff, 0x07, 0x1c, 0xf8, 0x02,
  0x03, 0x01, 0xff, 0x11, 0x0f, 0x0a, 0xee, 0x0c, 0xf2, 0x00, 0x03, 0x0e,
  0x07, 0xee, 0xf7, 0x08, 0x10, 0x07, 0xef, 0xfd, 0x04, 0xfb, 0x00, 0x06,
  0x03, 0x01, 0x0b, 0x05, 0xf0, 0x05, 0xfd, 0xf2, 0xfb, 0x06, 0x22, 0x15,
  0x00, 0x04, 0xf6, 0xfa, 0xff, 0x02, 0x00, 0xda, 0x0b, 0x14, 0xfc, 0xfc,
  0x01, 0x11, 0xfd, 0x00, 0x00, 0x02, 0x0a, 0x06, 0xfa, 0x0e, 0xf6, 0x03,
  0xf7, 0xf4, 0x19, 0x01, 0xf1, 0xe5, 0xfd, 0xf5, 0xfd, 0x00, 0x0c, 0x0a,
  0x0a, 0xf9, 0xe7, 0xe3, 0x00, 0x02, 0x00, 0x08, 0x00, 0xf0, 0x0d, 0x09,
  0x04, 0x04, 0xf8, 0x05, 0xfc, 0xf5, 0x03, 0xff, 0xe9, 0xfc, 0xfe, 0xd7,
  0xef, 0x04, 0x0d, 0x01, 0x00, 0x00, 0xf3, 0x01, 0x07, 0xee, 0xe5, 0x04,
  0x08, 0x04, 0x02, 0xde, 0xf9, 0xd3, 0x01, 0x0a, 0x00, 0xfd, 0xf6, 0x06,
  0x04, 0x00, 0xef, 0xf0, 0x41, 0x11, 0xf7, 0xfb, 0x06, 0xfe, 0x05, 0xfe,
  0xfe, 0xff, 0x07, 0x00, 0xf9, 0xe8, 0xe7, 0xff, 0x09, 0x03, 0xe7, 0xec,
  0x0b, 0x0b, 0x0d, 0x03, 0x03, 0xf4, 0x00, 0xfe, 0x03, 0xff, 0x0c, 0xed,
  0x02, 0x04, 0xfb, 0xff, 0xff, 0xfd, 0xff, 0x01, 0x04, 0x02, 0x02, 0xfb,
  0xff, 0x03, 0xfd, 0xfe, 0xfd, 0x02, 0xfe, 0xfb, 0xfd, 0xfc, 0xff, 0xfb,
  0x04, 0x02, 0xfe, 0x01, 0x00, 0x00, 0xfe, 0x02, 0x02, 0x00, 0x00, 0xff,
  0xfd, 0xfc, 0x00, 0xfe, 0x02, 0xfd, 0xfc, 0x00, 0x01, 0xfd, 0xfc, 0x00,
  0xfc, 0xfb, 0x03, 0x02, 0x00, 0xfb, 0xfd, 0xff, 0xff, 0x00, 0xfb, 0xfb,
  0xfe, 0x03, 0x02, 0x00, 0x00, 0xfc, 0x00, 0xff, 0xff, 0xfe, 0xfe, 0x01,
  0xff, 0xfd, 0xfb, 0xfd, 0x01, 0xfe, 0xfb, 0x01, 0xfb, 0x00, 0xfe, 0x01,
  0xfe, 0x00, 0xff, 0xfe, 0x00, 0xfc, 0xfb, 0xfe, 0xff, 0x03, 0xfc, 0xfc,
  0xfd, 0x02, 0xfe, 0x02, 0xfd, 0xff, 0x00, 0xfe, 0xfc, 0xff, 0xff, 0x03,
  0xfd, 0xfc, 0x01, 0x00, 0x03, 0xfd, 0xfe, 0x00, 0xfe, 0xfe, 0x00, 0xff,
  0xfd, 0x00, 0x03, 0xfe, 0x03, 0x00, 0xfe, 0x02, 0xfd, 0x01, 0x04, 0xff,
  0xfd, 0xfd, 0xee, 0xf0, 0x01, 0xd2, 0x0b, 0x10, 0x03, 0x1b, 0x09, 0x02,
  0xf2, 0x24, 0x1e, 0xef, 0x06, 0xf1, 0xfd, 0xf8, 0x02, 0x06, 0x0c, 0xf0,
  0xfe, 0x04, 0xcf, 0x00, 0x11, 0x06, 0x07, 0x10, 0x02, 0x14, 0xfe, 0xed,
  0x03, 0x03, 0xf6, 0xfb, 0x00, 0x0c, 0xfe, 0x07, 0x00, 0xf2, 0x02, 0x03,
  0xf9, 0xff, 0x08, 0x17, 0xf1, 0x00, 0xee, 0x08, 0xfd, 0x06, 0xf7, 0xe6,
  0x0a, 0xe5, 0xff, 0x0d, 0x02, 0x07, 0x0b, 0x12, 0x02, 0xfc, 0xf5, 0xf0,
  0xf0, 0x02, 0x07, 0xfc, 0xcc, 0xfc, 0xf2, 0x07, 0xf2, 0x07, 0x05, 0xf8,
  0x09, 0xf0, 0xdf, 0x02, 0x1b, 0x02, 0x14, 0x06, 0xfb, 0x01, 0x0c, 0xfa,
  0x09, 0xff, 0x00, 0x0b, 0x15, 0x0a, 0xe2, 0xfb, 0x09, 0xf6, 0x06, 0x01,
  0xf7, 0xfd, 0x0e, 0x01, 0xf3, 0xfd, 0x0a, 0x03, 0x04, 0x05, 0x02, 0xfe,
  0x04, 0xff, 0xfa, 0xe5, 0x01, 0x07, 0x03, 0xe4, 0xfd, 0xfd, 0xe5, 0x12,
  0xfc, 0xf9, 0x0b, 0x0f, 0xed, 0xee, 0xff, 0xf5, 0xea, 0xfc, 0xf3, 0xf8,
  0x02, 0xff, 0x04, 0xf4, 0xff, 0xfd, 0xf8, 0x05, 0xff, 0x02, 0x20, 0x00,
  0x00, 0x12, 0xfa, 0xef, 0x02, 0x08, 0x04, 0x04, 0xfc, 0xfe, 0x04, 0x08,
  0x05, 0x06, 0xee, 0xd9, 0x01, 0xfb, 0x01, 0x04, 0x0f, 0xe1, 0x07, 0xff,
  0x09, 0xfb, 0x09, 0xf9, 0xfc, 0xf5, 0x03, 0x0c, 0x26, 0x0b, 0x01, 0x0c,
  0xff, 0xfa, 0x28, 0x0d, 0x01, 0x06, 0x2e, 0xdd, 0x01, 0xf3, 0x01, 0x00,
  0x0d, 0x02, 0xf2, 0x11, 0x10, 0x03, 0xfb, 0x0b, 0x0c, 0xff, 0xef, 0xfe,
  0xbe, 0xfc, 0x02, 0xe8, 0x0c, 0xfd, 0xf2, 0xfd, 0xdd, 0x03, 0x01, 0x07,
  0x0d, 0xcf, 0x02, 0x07, 0x07, 0x29, 0x0a, 0xea, 0xfd, 0xf7, 0x0b, 0x19,
  0xe2, 0x17, 0x03, 0xfe, 0xfd, 0xf2, 0x02, 0x08, 0xfd, 0x01, 0x0f, 0xff,
  0x05, 0xfb, 0xfa, 0x03, 0xf4, 0xf9, 0xff, 0xfb, 0x00, 0x03, 0xa6, 0x0c,
  0x00, 0xf4, 0xf3, 0x04, 0x00, 0x1f, 0x0d, 0x13, 0x07, 0xca, 0xfe, 0xfc,
  0xfe, 0xfb, 0x01, 0x01, 0x01, 0x05, 0xeb, 0x03, 0x05, 0x0d, 0x05, 0xf4,
  0xf6, 0x13, 0xfb, 0x07, 0xe3, 0xfd, 0x01, 0x0b, 0x01, 0xec, 0xf5, 0xec,
  0x02, 0x05, 0x02, 0xfd, 0xf3, 0x01, 0xff, 0xe1, 0x0f, 0xfe, 0x08, 0xff,
  0xff, 0x0e, 0xfb, 0x04, 0x16, 0x01, 0x04, 0xef, 0x0d, 0x07, 0xf3, 0xe8,
  0xfe, 0x01, 0xf1, 0xfc, 0xf5, 0x08, 0x26, 0xff, 0x01, 0x04, 0xf4, 0x21,
  0xfc, 0x9e, 0x02, 0x05, 0x0c, 0xfa, 0xea, 0x04, 0x09, 0x01, 0x1a, 0xfc,
  0x2e, 0x13, 0x07, 0xfd, 0x09, 0xfd, 0x04, 0xf7, 0x00, 0xfd, 0x09, 0xf1,
  0xfe, 0x10, 0x09, 0x09, 0x04, 0x0b, 0xf6, 0x02, 0x06, 0x08, 0x0c, 0x02,
  0x04, 0xf6, 0xff, 0x09, 0x01, 0x03, 0x0b, 0xfe, 0x05, 0xfe, 0x04, 0xfa,
  0x11, 0x0a, 0x11, 0x10, 0xfd, 0x08, 0x07, 0xfe, 0xfd, 0xf4, 0xf7, 0xf0,
  0x04, 0xf4, 0xdb, 0x00, 0xe4, 0x04, 0x04, 0xfb, 0x04, 0xf5, 0xfe, 0xe7,
  0xff, 0x02, 0xfb, 0xfe, 0x0b, 0x01, 0x00, 0xf7, 0xd6, 0x08, 0xf0, 0xe3,
  0x1d, 0x02, 0x04, 0x16, 0x00, 0xf4, 0xf4, 0xf7, 0x06, 0xf7, 0x01, 0x07,
  0x00, 0xef, 0x04, 0x12, 0x06, 0x00, 0x04, 0x09, 0x04, 0xfd, 0xfd, 0xfe,
  0xae, 0x01, 0x00, 0x0a, 0x08, 0x04, 0xea, 0x12, 0x00, 0x06, 0xea, 0x0f,
  0xec, 0x0d, 0xed, 0xf5, 0x18, 0xfc, 0x01, 0x1b, 0x08, 0x11, 0x03, 0xf8,
  0x05, 0x17, 0x07, 0xf8, 0xf3, 0x03, 0x0d, 0xfd, 0xe6, 0xfa, 0x1c, 0x04,
  0xfa, 0xfe, 0x00, 0x09, 0xf1, 0x05, 0x01, 0xfe, 0xf4, 0x12, 0x22, 0x01,
  0xf4, 0xfc, 0x01, 0x0f, 0x09, 0xf6, 0xf2, 0x03, 0xfe, 0xfd, 0x00, 0x06,
  0x00, 0x04, 0x0b, 0xf2, 0xef, 0x0b, 0xfe, 0xfc, 0x09, 0x02, 0xfc, 0x02,
  0x01, 0xfe, 0x05, 0xfb, 0xfe, 0x01, 0x08, 0x01, 0xfa, 0xf7, 0x02, 0x07,
  0x0c, 0x07, 0x02, 0x01, 0x00, 0x02, 0x02, 0x0c, 0xf1, 0xfc, 0x00, 0x00,
  0xfc, 0xf6, 0xf9, 0xe4, 0x00, 0x01, 0xfe, 0x06, 0x04, 0xfd, 0xf6, 0xfc,
  0x05, 0xfd, 0xf7, 0x01, 0x03, 0x04, 0xfe, 0xf3, 0x01, 0xfc, 0x04, 0x0b,
  0xfc, 0x04, 0x07, 0x02, 0x01, 0xfb, 0x07, 0xfc, 0x08, 0x0a, 0x01, 0x01,
  0x0b, 0xe8, 0x01, 0xcf, 0x04, 0xfd, 0xfc, 0x02, 0xfe, 0x06, 0x03, 0xfa,
  0x03, 0x00, 0xfd, 0xf9, 0x08, 0x03, 0x04, 0x05, 0x05, 0x03, 0xff, 0x00,
  0xfc, 0x04, 0x06, 0xfc, 0xeb, 0xfb, 0x04, 0x07, 0xfb, 0x01, 0x03, 0x01,
  0xfa, 0xf7, 0x0b, 0x07, 0xf7, 0x00, 0xf8, 0xff, 0x03, 0xfd, 0xf1, 0x02,
  0x01, 0x04, 0xfc, 0x03, 0x04, 0xfe, 0x00, 0x02, 0x03, 0xfc, 0x02, 0xf9,
  0x00, 0x06, 0xfd, 0xfd, 0x0e, 0xf2, 0xf6, 0xff, 0xfe, 0xf8, 0x03, 0xff,
  0x0c, 0xeb, 0xfc, 0x0d, 0xff, 0xf2, 0x02, 0x03, 0xd1, 0xff, 0xfd, 0xfe,
  0xfd, 0x08, 0x0d, 0xe0, 0x07, 0xfb, 0x14, 0x03, 0x0b, 0x00, 0x09, 0x00,
  0x04, 0x04, 0x02, 0xf4, 0xfb, 0xfe, 0x05, 0xf8, 0xfe, 0xfe, 0x05, 0xfb,
  0x05, 0xff, 0xff, 0x0b, 0xf5, 0xf5, 0x01, 0x00, 0x05, 0xfd, 0xf8, 0xff,
  0x02, 0xfc, 0xd6, 0x02, 0xf7, 0xfc, 0xfe, 0x07, 0xe8, 0x06, 0x08, 0xff,
  0x02, 0x04, 0x06, 0xfd, 0x06, 0xee, 0x00, 0xfe, 0x07, 0xfd, 0xf8, 0x05,
  0x03, 0xed, 0x03, 0xfc, 0x08, 0xf3, 0x0e, 0x07, 0x11, 0x02, 0x07, 0x06,
  0x1e, 0xf5, 0x0d, 0xfe, 0x06, 0xfc, 0x05, 0x09, 0xfe, 0xf9, 0xba, 0xf3,
  0x04, 0xfc, 0x00, 0x00, 0x00, 0x10, 0x02, 0x01, 0x00, 0xfb, 0x0c, 0x02,
  0x06, 0xfd, 0xff, 0x05, 0x02, 0x03, 0xff, 0x0d, 0x01, 0xf6, 0x06, 0xfd,
  0xfc, 0xfe, 0xe3, 0x09, 0x01, 0x03, 0x01, 0xf3, 0xed, 0x0b, 0x00, 0xfc,
  0xfb, 0x05, 0xfc, 0xf1, 0x07, 0x08, 0x04, 0xfa, 0x02, 0x01, 0xfe, 0xff,
  0x02, 0x08, 0x10, 0x01, 0xf8, 0xfe, 0x08, 0xfb, 0x08, 0xf0, 0xf3, 0x1b,
  0xe4, 0x00, 0x03, 0xe9, 0x08, 0x02, 0x2c, 0x05, 0xfe, 0x07, 0xff, 0x01,
  0xf6, 0x06, 0x0e, 0xf5, 0x0d, 0x02, 0x00, 0x05, 0xfd, 0xf2, 0xfb, 0xa6,
  0x06, 0x01, 0x03, 0xef, 0x01, 0x04, 0x11, 0xf9, 0xff, 0xea, 0x1b, 0xc8,
  0xf6, 0xfb, 0xf8, 0x02, 0xfb, 0xff, 0x07, 0xfb, 0x28, 0xf3, 0xff, 0x1c,
  0xeb, 0x0c, 0xf6, 0x0b, 0x27, 0xfc, 0xe4, 0x03, 0x05, 0x09, 0xf4, 0xe1,
  0xfa, 0xfe, 0x01, 0x02, 0x11, 0x13, 0xf3, 0xf4, 0x06, 0x09, 0xff, 0x03,
  0xf5, 0xeb, 0xe7, 0xf6, 0xf6, 0x0c, 0xf9, 0x01, 0xf8, 0x09, 0xff, 0xf9,
  0x03, 0xfc, 0xe1, 0xfc, 0x06, 0x05, 0x1a, 0x04, 0xfa, 0xc4, 0xfd, 0xe0,
  0x00, 0xf8, 0xfe, 0xd8, 0x05, 0xff, 0xea, 0x04, 0x04, 0xeb, 0x9a, 0xec,
  0xff, 0xe8, 0x01, 0x0c, 0xfd, 0xfd, 0x8a, 0x02, 0x0e, 0xb3, 0x07, 0x03,
  0xfc, 0xf2, 0x0f, 0x11, 0x06, 0xff, 0x02, 0x0b, 0xef, 0x03, 0x08, 0xfe,
  0x03, 0x08, 0xdd, 0x02, 0x03, 0x08, 0xfd, 0x05, 0xfc, 0xff, 0xfa, 0xeb,
  0xee, 0x02, 0xe5, 0x04, 0xff, 0x09, 0x02, 0x0d, 0x08, 0x02, 0x02, 0x08,
  0x0a, 0x04, 0x14, 0x02, 0xfb, 0xe5, 0xff, 0x03, 0xca, 0xfa, 0xf0, 0x01,
  0xfd, 0xfd, 0xfb, 0x05, 0xf9, 0xe6, 0x01, 0x04, 0x0b, 0x01, 0x08, 0xfc,
  0x0e, 0xff, 0xe2, 0xf3, 0x08, 0xfb, 0xff, 0x00, 0x07, 0xfd, 0xfe, 0x12,
  0x05, 0xfd, 0xfd, 0xf8, 0xe8, 0x01, 0x07, 0x16, 0xf3, 0x08, 0xfb, 0xcc,
  0x04, 0xfd, 0xc5, 0xff, 0xe9, 0x05, 0xff, 0xf7, 0x01, 0x04, 0x01, 0xf5,
  0x0a, 0xfb, 0xda, 0xee, 0xf6, 0x05, 0x1d, 0x16, 0xfd, 0xfe, 0xfa, 0xe5,
  0x08, 0xfe, 0x06, 0xef, 0xf8, 0x0d, 0x1e, 0x04, 0x0b, 0xf9, 0xfe, 0xec,
  0xfe, 0x06, 0xf2, 0xfd, 0xfd, 0xfd, 0xbb, 0x02, 0xf5, 0xf4, 0x0e, 0x07,
  0xf5, 0xfb, 0x06, 0x16, 0x0f, 0xfd, 0x04, 0x02, 0xe4, 0x05, 0xfa, 0xf8,
  0xfd, 0xfa, 0x02, 0x04, 0xfd, 0x01, 0xf8, 0x0b, 0x15, 0xfe, 0x0b, 0x08,
  0xfd, 0xff, 0x01, 0x0c, 0xef, 0x05, 0x04, 0x00, 0x00, 0xfd, 0x01, 0xfe,
  0x03, 0x02, 0x07, 0x09, 0xf4, 0xe2, 0xd4, 0xf8, 0x01, 0xfe, 0xf5, 0x06,
  0xfd, 0x21, 0x01, 0x06, 0x0b, 0x10, 0xf8, 0x03, 0x10, 0xfd, 0x06, 0xef,
  0x0c, 0xfb, 0xf9, 0xf8, 0xfa, 0x02, 0x03, 0x05, 0xfc, 0x07, 0xf9, 0x05,
  0xfc, 0xd4, 0x0d, 0x03, 0x02, 0x0a, 0xfc, 0xd1, 0x2f, 0x02, 0x12, 0x02,
  0xfe, 0x0b, 0xfc, 0x00, 0x02, 0xff, 0xd9, 0xf2, 0x04, 0xf8, 0x0d, 0xfc,
  0x07, 0xf2, 0x09, 0x01, 0x03, 0xf6, 0xfe, 0x00, 0xfd, 0xfd, 0x01, 0x04,
  0xea, 0xf8, 0x01, 0x03, 0xfa, 0x01, 0xfd, 0x07, 0x05, 0xff, 0xf5, 0xf6,
  0xfe, 0xff, 0xec, 0x01, 0xff, 0xfa, 0x05, 0xf7, 0xfd, 0x01, 0x07, 0x0a,
  0xf4, 0x00, 0xf1, 0x05, 0xf6, 0xf8, 0x0c, 0x0a, 0x03, 0xf3, 0x02, 0xf4,
  0x06, 0x0a, 0x0d, 0xff, 0xff, 0x01, 0xe7, 0xfa, 0x00, 0x03, 0x06, 0xed,
  0x0e, 0xfd, 0x03, 0xf5, 0x04, 0x00, 0xd0, 0xff, 0x01, 0x07, 0xf3, 0x0b,
  0xf3, 0x07, 0x08, 0x09, 0xf0, 0xfd, 0xf9, 0xe9, 0x01, 0x22, 0x00, 0x05,
  0xf7, 0x08, 0x0a, 0xfa, 0xf3, 0x03, 0x0a, 0xeb, 0xdb, 0x06, 0x0d, 0xfc,
  0x03, 0x01, 0x01, 0x02, 0x04, 0x0a, 0x08, 0x06, 0x03, 0x0f, 0x07, 0xfe,
  0xf4, 0x03, 0xf5, 0x06, 0xfc, 0x01, 0xf8, 0xff, 0x09, 0xf8, 0x04, 0x01,
  0x00, 0x03, 0x01, 0x0a, 0xfa, 0x07, 0xf3, 0x00, 0x08, 0xff, 0x1d, 0x03,
  0x01, 0xfe, 0x02, 0xfd, 0xf8, 0xf8, 0x03, 0x05, 0xf8, 0x21, 0xf3, 0xf5,
  0xfd, 0xec, 0x04, 0x09, 0xff, 0xf9, 0x08, 0x02, 0xfb, 0xf2, 0x1a, 0x02,
  0xff, 0xed, 0x11, 0xfc, 0xd4, 0xf7, 0xf7, 0x03, 0xea, 0xfc, 0xf4, 0x0c,
  0xf4, 0x21, 0xab, 0x00, 0xff, 0xff, 0x00, 0x05, 0xfb, 0xfe, 0x02, 0xe3,
  0x0c, 0x02, 0xed, 0x12, 0x02, 0x00, 0xfe, 0xed, 0xf7, 0xe0, 0xfd, 0x03,
  0x02, 0xff, 0x0f, 0xfe, 0x04, 0x06, 0xba, 0xfb, 0x02, 0x02, 0xff, 0x0d,
  0x06, 0x02, 0x08, 0x05, 0xfb, 0xf1, 0x04, 0x0f, 0x03, 0x1e, 0xff, 0x09,
  0x07, 0x00, 0x11, 0xe3, 0x0e, 0x01, 0xa7, 0x0c, 0x01, 0xff, 0x00, 0x06,
  0xec, 0xff, 0x00, 0xf3, 0x07, 0xee, 0xff, 0xf2, 0x06, 0x04, 0x06, 0x09,
  0x0e, 0xf1, 0x11, 0xfd, 0xf3, 0xf8, 0xfd, 0x0d, 0x00, 0xfe, 0xf1, 0xf8,
  0xf9, 0xf7, 0xcb, 0x0c, 0x00, 0xfc, 0x17, 0x0f, 0xff, 0xfb, 0x0b, 0xd8,
  0x08, 0x09, 0xfd, 0xf7, 0xf6, 0x21, 0x2e, 0x09, 0x04, 0xfa, 0x04, 0xee,
  0x00, 0x06, 0xdf, 0xfe, 0x02, 0x06, 0xd2, 0xff, 0xee, 0x02, 0x09, 0xfb,
  0x03, 0x0a, 0x06, 0x05, 0xf3, 0xfd, 0xff, 0x01, 0xe4, 0x06, 0x01, 0xf5,
  0xfd, 0xff, 0xfd, 0x03, 0x03, 0xfb, 0xfa, 0xf4, 0x1e, 0x00, 0x10, 0xfa,
  0x03, 0xfb, 0xfe, 0xf9, 0x0a, 0xfe, 0x00, 0xcd, 0x03, 0x00, 0x04, 0xf4,
  0x05, 0x07, 0xf5, 0xff, 0xf9, 0xf9, 0xf5, 0xff, 0x00, 0xfd, 0xf3, 0x05,
  0xe1, 0x21, 0x04, 0x1b, 0xf7, 0x18, 0x11, 0xff, 0xfb, 0x02, 0x04, 0xf3,
  0x02, 0xef, 0xff, 0x01, 0xd1, 0xfe, 0xfd, 0x02, 0xef, 0x09, 0xfc, 0xe9,
  0x02, 0x1f, 0x03, 0x08, 0x09, 0x08, 0x01, 0x01, 0x18, 0x04, 0x0f, 0x00,
  0x05, 0x00, 0x03, 0x0b, 0xff, 0x03, 0xe6, 0xf1, 0xff, 0xfe, 0xec, 0x03,
  0xf7, 0x02, 0x11, 0x0e, 0x02, 0xf5, 0xf8, 0xf5, 0x0b, 0x04, 0x00, 0x06,
  0x07, 0x0d, 0x00, 0xfe, 0x05, 0x00, 0xfd, 0x08, 0x03, 0x00, 0x01, 0x07,
  0x03, 0xfe, 0xfb, 0x02, 0xf9, 0x08, 0x02, 0x0a, 0xfb, 0xfd, 0x09, 0xff,
  0xfd, 0xfe, 0x07, 0x12, 0xfa, 0x00, 0x19, 0xff, 0x01, 0x0b, 0x01, 0x0d,
  0xc9, 0xd1, 0x02, 0xf7, 0xfb, 0x01, 0x0c, 0x04, 0x01, 0x08, 0xdd, 0xf6,
  0xef, 0x04, 0x03, 0xf6, 0xe9, 0xfc, 0xe9, 0xf0, 0xff, 0x08, 0x02, 0xfd,
  0x09, 0xeb, 0xea, 0xf8, 0x0a, 0x03, 0xfb, 0x0d, 0x06, 0x01, 0x05, 0xf3,
  0xfc, 0x01, 0x04, 0x07, 0xfb, 0x04, 0xee, 0xfb, 0x1c, 0xfa, 0x16, 0xfc,
  0x09, 0xfe, 0x04, 0x03, 0x04, 0xf9, 0xf3, 0x03, 0x0e, 0xe8, 0x02, 0x01,
  0x04, 0x0d, 0xfa, 0xfd, 0xff, 0x03, 0x00, 0xff, 0x08, 0xf7, 0xfe, 0xfb,
  0x00, 0x04, 0xe7, 0xf8, 0x02, 0xfe, 0x14, 0x06, 0xfd, 0xfa, 0x03, 0xfd,
  0x02, 0x01, 0xfe, 0xfe, 0xfd, 0xfd, 0xfd, 0x01, 0xfd, 0xfd, 0xff, 0xfc,
  0xff, 0xfd, 0xfe, 0xff, 0x03, 0xfe, 0xff, 0xfc, 0x00, 0xfd, 0x02, 0xfc,
  0xfb, 0x01, 0x00, 0xfe, 0xff, 0x03, 0x02, 0xff, 0x01, 0x02, 0xfa, 0x00,
  0x01, 0x00, 0xfd, 0xfe, 0x01, 0xfc, 0x04, 0xfd, 0xfa, 0xff, 0x01, 0x00,
  0x01, 0xfd, 0xff, 0xfc, 0x00, 0x00, 0xfe, 0xfb, 0xfe, 0x03, 0xfe, 0xfd,
  0x03, 0x00, 0x00, 0xfd, 0x02, 0x02, 0xfb, 0xfd, 0x00, 0xfe, 0x01, 0xfb,
  0x01, 0x02, 0xfb, 0xff, 0x02, 0xff, 0xfc, 0xfd, 0xfd, 0xff, 0xfe, 0xff,
  0xff, 0x01, 0x03, 0xff, 0xfd, 0xf9, 0xfe, 0xfc, 0x02, 0xfe, 0xff, 0xfc,
  0x04, 0xfc, 0xfe, 0xfe, 0xfc, 0xfe, 0xff, 0xff, 0x03, 0xff, 0x03, 0x00,
  0xfe, 0x02, 0xff, 0x00, 0xfe, 0xfd, 0x01, 0xfb, 0xfe, 0xfc, 0xfe, 0xfe,
  0xff, 0xfc, 0xff, 0x01, 0xfd, 0x05, 0x14, 0xe3, 0x00, 0x19, 0xfe, 0xfa,
  0x06, 0xb9, 0xe4, 0xed, 0xfb, 0x05, 0x17, 0xf5, 0x01, 0x03, 0x00, 0x0a,
  0x00, 0xf1, 0xfa, 0xfc, 0xff, 0xff, 0x06, 0x01, 0x07, 0xf9, 0x14, 0x02,
  0xfb, 0xf8, 0x00, 0x10, 0x09, 0x01, 0xfc, 0x0b, 0x11, 0x06, 0x02, 0xd6,
  0xfd, 0xf9, 0x03, 0xff, 0x01, 0xfb, 0x02, 0xf8, 0xf3, 0xfe, 0x0b, 0x06,
  0xfd, 0xef, 0xfd, 0xfa, 0xf1, 0xe6, 0x02, 0xff, 0xf7, 0xf8, 0xfc, 0xf0,
  0x00, 0x0c, 0x04, 0x02, 0x1b, 0xf6, 0xf8, 0x05, 0x00, 0xfc, 0x0b, 0xf2,
  0xf6, 0x24, 0xfd, 0xf3, 0x05, 0xfe, 0x00, 0xfc, 0xf0, 0x01, 0x07, 0xfe,
  0xf0, 0x0b, 0xed, 0xf6, 0xfb, 0xfd, 0x03, 0xef, 0xd5, 0xf6, 0xef, 0x0a,
  0xc6, 0x0c, 0x00, 0xfe, 0x15, 0xd9, 0x04, 0xc9, 0x0b, 0x03, 0xf9, 0x03,
  0xfe, 0x02, 0xfd, 0xf4, 0x00, 0x03, 0xf3, 0x05, 0x02, 0x13, 0x07, 0xee,
  0xf9, 0xf5, 0xb6, 0x08, 0xfd, 0x02, 0x03, 0x1c, 0x05, 0xfe, 0xfb, 0xfa,
  0x04, 0x21, 0x1f, 0xff, 0x05, 0x0f, 0x03, 0x07, 0xfd, 0xf9, 0x07, 0xfd,
  0xf4, 0xff, 0xe8, 0xfe, 0xf2, 0xf4, 0xfe, 0xf1, 0xfd, 0xf5, 0xf0, 0x06,
  0x0b, 0x03, 0xfe, 0xe9, 0x05, 0xc7, 0x00, 0xf2, 0x04, 0x00, 0x03, 0x03,
  0xfe, 0x04, 0xfe, 0xf0, 0xf2, 0xfd, 0x0c, 0xf0, 0x01, 0xf8, 0x00, 0x0c,
  0x05, 0xf7, 0x01, 0x0f, 0xf5, 0xe4, 0xe0, 0x01, 0x04, 0xfb, 0x10, 0xfc,
  0xf6, 0xf8, 0xd8, 0x05, 0xff, 0xff, 0x03, 0xf1, 0xf5, 0xf1, 0xfc, 0xf1,
  0xff, 0x00, 0xff, 0x0c, 0x03, 0x03, 0xee, 0xff, 0xdd, 0x0d, 0xf6, 0xfa,
  0xfd, 0x00, 0xff, 0x07, 0xf4, 0x18, 0x03, 0x0f, 0x02, 0xfe, 0xd9, 0x20,
  0xf0, 0x0c, 0xfa, 0xf0, 0x16, 0xf6, 0xf2, 0xff, 0xc9, 0xfd, 0x04, 0x11,
  0xfc, 0xfd, 0x1d, 0x05, 0xf1, 0x01, 0x02, 0x08, 0xfa, 0x04, 0xd2, 0xe5,
  0x01, 0x04, 0x06, 0x18, 0x09, 0x04, 0x0e, 0x00, 0xf6, 0x0e, 0xbb, 0x04,
  0xf9, 0xec, 0xfe, 0x0c, 0xff, 0x00, 0x03, 0xf6, 0x00, 0xfc, 0xcc, 0x04,
  0x02, 0xff, 0x11, 0xef, 0x01, 0xf0, 0x00, 0x11, 0x10, 0x01, 0xe4, 0x07,
  0x08, 0xed, 0xf5, 0x02, 0xff, 0xfa, 0xfe, 0xf8, 0x0b, 0xf7, 0x03, 0x1b,
  0xf0, 0x03, 0xd1, 0x02, 0xff, 0x0f, 0xff, 0x12, 0x1e, 0x0d, 0x00, 0xff,
  0xf8, 0x02, 0xfc, 0xf4, 0x02, 0xfd, 0xfb, 0x01, 0xfe, 0xfc, 0x08, 0xec,
  0x08, 0xfd, 0xef, 0x19, 0x0a, 0xea, 0x06, 0x05, 0x10, 0xf0, 0x02, 0xf1,
  0x29, 0xfe, 0x07, 0xe7, 0xf8, 0xf4, 0xdf, 0xf4, 0xfb, 0x01, 0x00, 0xfa,
  0xf5, 0x05, 0x04, 0x07, 0xec, 0x11, 0xf0, 0x10, 0x00, 0x05, 0x01, 0x01,
  0x1a, 0x0d, 0xdd, 0x00, 0xf2, 0xf0, 0xfe, 0x05, 0x04, 0xfd, 0xf3, 0x03,
  0xfa, 0x05, 0xfc, 0x02, 0xfa, 0xfc, 0xc1, 0x02, 0x01, 0xe1, 0x03, 0x0a,
  0xf5, 0xf8, 0xf8, 0x07, 0x06, 0x05, 0x2a, 0x02, 0xf8, 0x0b, 0x00, 0x05,
  0x03, 0x08, 0x02, 0xe4, 0xff, 0xf5, 0xf7, 0xfc, 0x05, 0x11, 0x10, 0x08,
  0x02, 0x04, 0x0b, 0x04, 0x00, 0xfd, 0xf5, 0x19, 0xfa, 0xf0, 0x09, 0x06,
  0x04, 0xf2, 0xfe, 0x02, 0xfe, 0xc7, 0x0d, 0x14, 0xfc, 0x00, 0x12, 0xff,
  0x04, 0xff, 0xfe, 0x01, 0xfe, 0xe5, 0xff, 0x08, 0xfd, 0x13, 0xee, 0x15,
  0x03, 0x0d, 0x0c, 0xfd, 0x01, 0xf0, 0xfe, 0x03, 0xf7, 0xff, 0x08, 0x18,
  0x02, 0xf1, 0x02, 0xff, 0xeb, 0x06, 0x05, 0xe9, 0x02, 0x02, 0xf3, 0x13,
  0xe8, 0xf1, 0xd6, 0xfe, 0xfa, 0x01, 0x03, 0xf9, 0xf6, 0xe9, 0x00, 0xe6,
  0x00, 0x2a, 0x1c, 0x09, 0x0c, 0x07, 0xff, 0x04, 0xe5, 0xf7, 0xdb, 0x01,
  0x00, 0x04, 0x04, 0x02, 0x04, 0xfd, 0x2c, 0xff, 0x04, 0xf7, 0xf5, 0xc0,
  0x05, 0x05, 0x03, 0x0a, 0x03, 0x14, 0x05, 0x16, 0xf1, 0xf5, 0xf5, 0x0e,
  0x0e, 0xea, 0x04, 0x00, 0x02, 0xfd, 0xff, 0x00, 0xfe, 0x04, 0x17, 0xf7,
  0xfe, 0x02, 0xf9, 0xfd, 0x05, 0xfd, 0x0f, 0x03, 0xf3, 0xf9, 0xf4, 0xf5,
  0x13, 0x02, 0xfe, 0x09, 0xef, 0x1e, 0x02, 0x0b, 0x03, 0x01, 0x02, 0xfc,
  0x03, 0xed, 0xfd, 0xfc, 0xfe, 0x03, 0x15, 0x06, 0x03, 0xfb, 0xff, 0xcc,
  0x0c, 0x0e, 0xfc, 0xcf, 0x00, 0xfc, 0xe4, 0x01, 0x02, 0xf6, 0x03, 0xf6,
  0x02, 0xfb, 0xe8, 0x06, 0xf8, 0x01, 0x09, 0xfd, 0xe4, 0xd2, 0xfc, 0xf7,
  0x0f, 0xf6, 0xfb, 0x11, 0xe3, 0x02, 0xfd, 0xfd, 0x03, 0x06, 0xf0, 0x01,
  0xee, 0xfe, 0xff, 0x04, 0x0e, 0x0d, 0xfa, 0x0c, 0x03, 0x16, 0x05, 0xf7,
  0xfc, 0x18, 0xfe, 0xfb, 0x20, 0xf1, 0xfa, 0x04, 0xf9, 0x05, 0x04, 0xf2,
  0x01, 0xfe, 0xfc, 0x07, 0xfe, 0x06, 0xe4, 0xe7, 0x02, 0x08, 0xdc, 0xe1,
  0xfd, 0x0f, 0xfa, 0xed, 0x0d, 0x02, 0x03, 0xe7, 0x03, 0x25, 0xe2, 0xf3,
  0x0a, 0x0f, 0xff, 0x01, 0x02, 0x03, 0xf7, 0x07, 0xff, 0xf1, 0x10, 0xfc,
  0x00, 0x07, 0x0a, 0xf2, 0xfb, 0x03, 0xfd, 0x03, 0x0a, 0x02, 0xfa, 0xfa,
  0x0d, 0xf6, 0x09, 0xf8, 0x04, 0x07, 0xfc, 0xfc, 0xfd, 0xef, 0xff, 0xe2,
  0xf5, 0x04, 0x0c, 0xf9, 0x01, 0x06, 0x01, 0x19, 0x14, 0x08, 0xfd, 0xf4,
  0x02, 0xef, 0x14, 0xe6, 0x00, 0x04, 0xfa, 0xfb, 0x00, 0x05, 0xa3, 0xfd,
  0xfa, 0xfd, 0xf4, 0xf5, 0x0d, 0x01, 0x01, 0xfe, 0x16, 0xf1, 0xfa, 0xf9,
  0xf8, 0xff, 0x09, 0xf9, 0x16, 0xfe, 0xad, 0xf9, 0x02, 0xfc, 0x04, 0x00,
  0x00, 0xfe, 0xf8, 0xf4, 0xe5, 0xbb, 0xf0, 0x0b, 0x0a, 0x00, 0xfd, 0xf0,
  0x00, 0xf5, 0x08, 0xfd, 0x0c, 0x0f, 0xfe, 0x06, 0x00, 0xfc, 0xfe, 0xfd,
  0x03, 0xfe, 0x03, 0xf6, 0x9c, 0xd1, 0xff, 0xff, 0xd2, 0xd1, 0xff, 0xff,
  0x04, 0x00, 0x00, 0x00, 0x00, 0x02, 0x00, 0x00, 0xeb, 0x00, 0x00, 0x00,
  0xe2, 0xff, 0xff, 0xff, 0x2b, 0xff, 0xff, 0xff, 0x0f, 0x00, 0x00, 0x00,
  0xbe, 0xff, 0xff, 0xff, 0xe0, 0xff, 0xff, 0xff, 0xd9, 0x00, 0x00, 0x00,
  0x7e, 0xff, 0xff, 0xff, 0x3d, 0x00, 0x00, 0x00, 0xfb, 0x00, 0x00, 0x00,
  0x7d, 0x01, 0x00, 0x00, 0x32, 0xff, 0xff, 0xff, 0xd4, 0xff, 0xff, 0xff,
  0xb9, 0xfe, 0xff, 0xff, 0x13, 0xfe, 0xff, 0xff, 0x2c, 0x00, 0x00, 0x00,
  0xa5, 0xff, 0xff, 0xff, 0x78, 0x00, 0x00, 0x00, 0xe7, 0xff, 0xff, 0xff,
  0xdd, 0xff, 0xff, 0xff, 0xd4, 0xff, 0xff, 0xff, 0xf2, 0x00, 0x00, 0x00,
  0xbd, 0xff, 0xff, 0xff, 0x2c, 0x00, 0x00, 0x00, 0x37, 0x00, 0x00, 0x00,
  0x6e, 0xff, 0xff, 0xff, 0xc5, 0xfe, 0xff, 0xff, 0xbc, 0xff, 0xff, 0xff,
  0x07, 0x00, 0x00, 0x00, 0x53, 0xff, 0xff, 0xff, 0x21, 0x00, 0x00, 0x00,
  0xc9, 0xff, 0xff, 0xff, 0x37, 0xff, 0xff, 0xff, 0x79, 0xff, 0xff, 0xff,
  0x6a, 0x00, 0x00, 0x00, 0xdc, 0xfe, 0xff, 0xff, 0x75, 0xff, 0xff, 0xff,
  0xd3, 0xff, 0xff, 0xff, 0xfa, 0xff, 0xff, 0xff, 0x5f, 0xff, 0xff, 0xff,
  0x83, 0x00, 0x00, 0x00, 0x00, 0xff, 0xff, 0xff, 0x38, 0xff, 0xff, 0xff,
  0x81, 0x00, 0x00, 0x00, 0xd9, 0xff, 0xff, 0xff, 0x7d, 0x00, 0x00, 0x00,
  0xc4, 0xff, 0xff, 0xff, 0x7a, 0xff, 0xff, 0xff, 0x37, 0x00, 0x00, 0x00,
  0xca, 0xff, 0xff, 0xff, 0xc8, 0x00, 0x00, 0x00, 0xc2, 0xfe, 0xff, 0xff,
  0x3f, 0xff, 0xff, 0xff, 0xaa, 0xff, 0xff, 0xff, 0x93, 0xfe, 0xff, 0xff,
  0x54, 0x00, 0x00, 0x00, 0xbc, 0xff, 0xff, 0xff, 0xbd, 0x00, 0x00, 0x00,
  0x4c, 0x00, 0x00, 0x00, 0xd3, 0xff, 0xff, 0xff, 0x81, 0xfe, 0xff, 0xff,
  0x4b, 0x00, 0x00, 0x00, 0xa2, 0xff, 0xff, 0xff, 0xf1, 0xfe, 0xff, 0xff,
  0x96, 0xff, 0xff, 0xff, 0x7d, 0xff, 0xff, 0xff, 0xd7, 0xfe, 0xff, 0xff,
  0x30, 0x00, 0x00, 0x00, 0xeb, 0xff, 0xff, 0xff, 0x78, 0x00, 0x00, 0x00,
  0xf4, 0x00, 0x00, 0x00, 0xcc, 0xff, 0xff, 0xff, 0x77, 0x01, 0x00, 0x00,
  0xf6, 0xff, 0xff, 0xff, 0xf0, 0xff, 0xff, 0xff, 0x94, 0x00, 0x00, 0x00,
  0x6d, 0xff, 0xff, 0xff, 0xd0, 0xff, 0xff, 0xff, 0xbb, 0x00, 0x00, 0x00,
  0x7a, 0xff, 0xff, 0xff, 0xc7, 0xfe, 0xff, 0xff, 0xae, 0xfe, 0xff, 0xff,
  0xc5, 0xff, 0xff, 0xff, 0xc2, 0x00, 0x00, 0x00, 0xcd, 0xfe, 0xff, 0xff,
  0x1e, 0xff, 0xff, 0xff, 0x70, 0xff, 0xff, 0xff, 0x33, 0x00, 0x00, 0x00,
  0x8a, 0xff, 0xff, 0xff, 0xb9, 0xff, 0xff, 0xff, 0xa9, 0x00, 0x00, 0x00,
  0xab, 0xfe, 0xff, 0xff, 0x63, 0xff, 0xff, 0xff, 0xc0, 0xfe, 0xff, 0xff,
  0x89, 0x00, 0x00, 0x00, 0x6c, 0xff, 0xff, 0xff, 0xe4, 0xfe, 0xff, 0xff,
  0xd5, 0xff, 0xff, 0xff, 0xcb, 0xff, 0xff, 0xff, 0x75, 0x00, 0x00, 0x00,
  0xf1, 0xfe, 0xff, 0xff, 0xb0, 0xff, 0xff, 0xff, 0xc7, 0xff, 0xff, 0xff,
  0x2a, 0x00, 0x00, 0x00, 0x80, 0x00, 0x00, 0x00, 0x0c, 0xff, 0xff, 0xff,
  0x3d, 0x00, 0x00, 0x00, 0x63, 0x00, 0x00, 0x00, 0x1b, 0xff, 0xff, 0xff,
  0xa8, 0x00, 0x00, 0x00, 0x93, 0xff, 0xff, 0xff, 0xc8, 0xfe, 0xff, 0xff,
  0xcb, 0xfe, 0xff, 0xff, 0x64, 0x00, 0x00, 0x00, 0xa6, 0xfe, 0xff, 0xff,
  0xc2, 0xff, 0xff, 0xff, 0x59, 0xff, 0xff, 0xff, 0x2b, 0xff, 0xff, 0xff,
  0xd8, 0xff, 0xff, 0xff, 0xe8, 0xff, 0xff, 0xff, 0xc7, 0xff, 0xff, 0xff,
  0xea, 0xff, 0xff, 0xff, 0x85, 0xff, 0xff, 0xff, 0xc1, 0x00, 0x00, 0x00,
  0x39, 0x01, 0x00, 0x00, 0xc4, 0xff, 0xff, 0xff, 0x26, 0x00, 0x00, 0x00,
  0x90, 0xfe, 0xff, 0xff, 0xde, 0xd3, 0xff, 0xff, 0x04, 0x00, 0x00, 0x00,
  0x00, 0x20, 0x00, 0x00, 0xfc, 0x07, 0xfe, 0x02, 0x00, 0x00, 0xf7, 0xf9,
  0x00, 0xfd, 0xfa, 0xfb, 0x04, 0x02, 0x00, 0xee, 0x00, 0x05, 0x01, 0x06,
  0xf6, 0x00, 0x01, 0x03, 0x02, 0xfe, 0x02, 0xfd, 0x03, 0x01, 0xfe, 0xff,
  0x00, 0x09, 0x02, 0x02, 0x00, 0x01, 0x01, 0xfd, 0x00, 0x03, 0x04, 0xfc,
  0xfe, 0xf9, 0x02, 0x05, 0x01, 0xdd, 0x01, 0xfe, 0x00, 0xff, 0x02, 0xff,
  0x01, 0x04, 0xfb, 0x06, 0xfc, 0xfd, 0x01, 0x08, 0xfe, 0xf5, 0x04, 0xfa,
  0x01, 0xff, 0xfb, 0x05, 0xff, 0x03, 0x02, 0x01, 0xfa, 0x00, 0xff, 0xe1,
  0xfc, 0x07, 0x00, 0x03, 0x06, 0xf9, 0x01, 0x03, 0x02, 0x0f, 0xfe, 0xfc,
  0x03, 0x01, 0x04, 0x02, 0x04, 0x03, 0x09, 0x00, 0x01, 0x01, 0x01, 0xf8,
  0xfd, 0x02, 0x02, 0x01, 0x04, 0x0a, 0x00, 0x03, 0x03, 0xfc, 0xfc, 0x06,
  0x08, 0x02, 0x01, 0xfe, 0x01, 0x05, 0x02, 0xfa, 0x05, 0xf9, 0x00, 0x03,
  0xfd, 0xfc, 0xf8, 0x06, 0xfe, 0xfe, 0x03, 0x00, 0x09, 0xfa, 0xf9, 0xfc,
  0xf5, 0x00, 0x04, 0xfe, 0xff, 0xfd, 0xf7, 0xfd, 0x03, 0x15, 0x00, 0x01,
  0xfc, 0x06, 0xff, 0x06, 0xf5, 0x01, 0x07, 0x05, 0xfd, 0xef, 0x0c, 0x06,
  0xff, 0xfd, 0xfe, 0x05, 0x07, 0x00, 0xfe, 0xfe, 0x02, 0x03, 0xfe, 0xee,
  0xef, 0x04, 0xfd, 0x09, 0xf6, 0xf8, 0x01, 0x00, 0x00, 0x01, 0xfd, 0x09,
  0xfd, 0x08, 0xf6, 0xf5, 0xe8, 0x02, 0xfc, 0xff, 0xfe, 0x05, 0xf3, 0x01,
  0x02, 0x06, 0x04, 0xfd, 0x04, 0x00, 0xfa, 0xf3, 0x06, 0x02, 0x00, 0x04,
  0x0e, 0x05, 0xf9, 0xfe, 0xff, 0x05, 0x02, 0xfd, 0xfc, 0x00, 0xfc, 0xfd,
  0xfb, 0x02, 0x00, 0xfb, 0xfe, 0xff, 0xfe, 0xfd, 0xfe, 0x03, 0xf9, 0xfc,
  0x04, 0x02, 0x00, 0xe9, 0x02, 0xf8, 0x06, 0xff, 0x04, 0x01, 0x01, 0x02,
  0x02, 0x00, 0x03, 0x04, 0x03, 0xf9, 0xff, 0x01, 0x01, 0xff, 0xfe, 0xff,
  0xfe, 0x00, 0xff, 0xfe, 0x01, 0x00, 0xfe, 0xff, 0xff, 0x00, 0xff, 0xff,
  0xfe, 0xff, 0x00, 0x01, 0x01, 0x01, 0xff, 0x00, 0xff, 0x01, 0xfe, 0xff,
  0xff, 0xff, 0x00, 0x00, 0xff, 0xff, 0x01, 0xfe, 0x02, 0xfe, 0x00, 0xff,
  0xff, 0x00, 0xfe, 0xff, 0x00, 0xff, 0xfe, 0xff, 0xff, 0xff, 0x00, 0xff,
  0xfd, 0x01, 0x02, 0x01, 0xfe, 0xff, 0xff, 0xfd, 0x01, 0xff, 0x01, 0xff,
  0xfd, 0xf9, 0xfb, 0xeb, 0xfe, 0x03, 0xfb, 0xf7, 0x05, 0x00, 0x06, 0x03,
  0x05, 0x00, 0x0b, 0x0c, 0x03, 0x00, 0x03, 0x02, 0x09, 0x04, 0xfa, 0x04,
  0x04, 0x00, 0x00, 0x01, 0x00, 0x00, 0x06, 0x06, 0x03, 0xf3, 0xfb, 0xfb,
  0xff, 0x06, 0xf6, 0xfa, 0x02, 0xfb, 0x04, 0x03, 0xfd, 0x05, 0x06, 0x00,
  0xfa, 0x01, 0xfd, 0x02, 0xf9, 0x05, 0xfe, 0xfe, 0x01, 0x03, 0xfe, 0xe4,
  0x05, 0xf3, 0x01, 0xfe, 0xfd, 0x03, 0xfe, 0xf9, 0x01, 0x03, 0x05, 0x09,
  0xfb, 0x03, 0x01, 0x04, 0xfd, 0x02, 0x05, 0x08, 0x08, 0xff, 0x02, 0x00,
  0xfc, 0xed, 0xfc, 0xfe, 0x06, 0x02, 0x00, 0x01, 0xfa, 0xff, 0x02, 0x00,
  0x06, 0xf7, 0x08, 0xf7, 0x01, 0x07, 0xff, 0xfe, 0xfb, 0xfd, 0xfa, 0x06,
  0xff, 0xfc, 0x07, 0xff, 0x05, 0xf6, 0x02, 0xf2, 0x02, 0x01, 0x01, 0xff,
  0xfe, 0xfa, 0x04, 0xf6, 0x06, 0xf3, 0x0b, 0x00, 0x01, 0x07, 0x0f, 0x05,
  0x01, 0x00, 0xef, 0x00, 0xf1, 0x04, 0x04, 0xf8, 0x08, 0xff, 0xff, 0xfb,
  0x02, 0x01, 0xee, 0xf1, 0x0b, 0x09, 0xfa, 0xf5, 0xee, 0x01, 0xff, 0xf1,
  0xff, 0xff, 0xfa, 0x01, 0xf2, 0x05, 0xe1, 0x02, 0x01, 0x00, 0xfe, 0x05,
  0x08, 0x00, 0xfb, 0xf3, 0x08, 0x00, 0x01, 0x08, 0x03, 0x0d, 0xfa, 0xff,
  0xf3, 0xf8, 0x01, 0xfe, 0x00, 0x03, 0xf9, 0x04, 0xe7, 0xf0, 0xf9, 0xfd,
  0x03, 0xfa, 0x02, 0xfd, 0x01, 0xff, 0xfb, 0x01, 0xfc, 0x02, 0x03, 0x07,
  0xfe, 0xfe, 0x06, 0xf8, 0x03, 0x01, 0x03, 0x04, 0x0a, 0xf9, 0x02, 0x07,
  0x06, 0xfb, 0x02, 0x02, 0xf4, 0x01, 0x04, 0x02, 0x00, 0xf1, 0xd9, 0x01,
  0xff, 0x05, 0x01, 0x01, 0xfb, 0x01, 0xfe, 0x03, 0x04, 0x00, 0x07, 0x01,
  0xfc, 0x04, 0xf9, 0xfe, 0xff, 0x05, 0x01, 0x02, 0x00, 0x01, 0x02, 0xfc,
  0x01, 0xf1, 0x05, 0x00, 0xfe, 0x04, 0xf6, 0x09, 0x01, 0x05, 0xfe, 0xe9,
  0xf4, 0x0b, 0x05, 0x00, 0x08, 0x00, 0xf9, 0xfa, 0x03, 0xff, 0xf9, 0xfc,
  0xf6, 0xf0, 0x00, 0xfb, 0xfc, 0xf9, 0xff, 0xfb, 0x01, 0xff, 0xfe, 0xf5,
  0xfd, 0xfd, 0xf7, 0x00, 0xff, 0xfb, 0xff, 0xfe, 0x03, 0xf3, 0x01, 0xfe,
  0xed, 0xfc, 0x01, 0xf1, 0x06, 0x01, 0x07, 0x01, 0x02, 0xfe, 0xff, 0x01,
  0x00, 0x06, 0x06, 0x04, 0xfa, 0x02, 0x01, 0x07, 0xfc, 0x02, 0x00, 0xfd,
  0xff, 0xfd, 0x03, 0xfd, 0x0b, 0x01, 0x03, 0xff, 0x01, 0x02, 0xfc, 0xde,
  0xfb, 0x00, 0x00, 0x04, 0xff, 0xfe, 0xfa, 0xf6, 0xff, 0xf0, 0x00, 0x03,
  0x04, 0x01, 0xfd, 0x02, 0x02, 0xfb, 0xfb, 0x07, 0xfe, 0x00, 0xfb, 0x08,
  0xf8, 0x05, 0xff, 0x01, 0xfd, 0xff, 0x02, 0xfa, 0x00, 0xfd, 0x07, 0x07,
  0x00, 0x01, 0xff, 0x01, 0xfe, 0x08, 0x04, 0xf9, 0x03, 0x04, 0x01, 0xfd,
  0x06, 0xfe, 0xfd, 0x00, 0xff, 0x05, 0xfd, 0x01, 0xf8, 0xfc, 0xfc, 0xfc,
  0xfc, 0xff, 0x0b, 0xf9, 0xfa, 0x04, 0x02, 0x02, 0x0a, 0xfe, 0xfd, 0x04,
  0x06, 0xf7, 0xff, 0xfd, 0x04, 0x00, 0x03, 0xfc, 0x02, 0x08, 0x02, 0xfd,
  0x01, 0x06, 0x03, 0xfe, 0x06, 0x00, 0x0d, 0xfb, 0xff, 0xf9, 0xfe, 0x06,
  0x00, 0x0a, 0xf8, 0x05, 0xfd, 0xfe, 0x02, 0x02, 0x01, 0x07, 0xed, 0xf9,
  0xfb, 0xfc, 0x02, 0xff, 0x03, 0xf6, 0xfd, 0x05, 0xff, 0x02, 0xe0, 0x05,
  0x02, 0x00, 0xfd, 0x00, 0xfd, 0x01, 0x00, 0xf3, 0xee, 0x02, 0x00, 0xfe,
  0x08, 0xf9, 0x01, 0x03, 0x02, 0x03, 0xff, 0x03, 0x01, 0xff, 0x01, 0x03,
  0x01, 0xff, 0xf3, 0x09, 0x00, 0x04, 0x04, 0xff, 0x03, 0x00, 0x01, 0xfc,
  0x02, 0x03, 0x03, 0x09, 0xf7, 0xfc, 0xf5, 0xf4, 0x03, 0xfe, 0x00, 0x00,
  0x00, 0x0a, 0xff, 0x07, 0xfa, 0xfa, 0x01, 0x06, 0xfd, 0x01, 0xfa, 0x04,
  0x01, 0xfb, 0xf8, 0x04, 0x07, 0xf4, 0xf4, 0xf4, 0xf8, 0x00, 0x01, 0x0a,
  0x0b, 0xff, 0xf3, 0xe4, 0xff, 0x09, 0x02, 0x04, 0xfb, 0x02, 0x00, 0xf4,
  0x03, 0xfe, 0xfb, 0xf4, 0xf9, 0xff, 0x09, 0x0d, 0x00, 0x01, 0xfd, 0xfb,
  0x02, 0xfb, 0x07, 0xf3, 0x03, 0xff, 0x01, 0x00, 0xfa, 0xf8, 0x0e, 0x03,
  0xf6, 0xff, 0x02, 0x01, 0xff, 0xf8, 0x06, 0x04, 0x00, 0x02, 0xf4, 0xf7,
  0xf1, 0xfb, 0x04, 0x02, 0xff, 0xff, 0xfd, 0xfe, 0xfb, 0xf6, 0xf9, 0x01,
  0x07, 0x00, 0x04, 0x0d, 0xfd, 0xff, 0xf5, 0xff, 0x0c, 0xe4, 0xfe, 0xf0,
  0x01, 0x06, 0xff, 0x05, 0xf6, 0x00, 0x01, 0xf7, 0xff, 0x06, 0x08, 0x01,
  0x00, 0x00, 0xf0, 0xff, 0xf7, 0x07, 0xfc, 0x01, 0xff, 0x07, 0xfc, 0x03,
  0xf9, 0x0e, 0xfe, 0xfe, 0x06, 0xfc, 0x01, 0x01, 0xfe, 0xda, 0xff, 0x06,
  0x03, 0xf9, 0x04, 0xff, 0x03, 0x09, 0xf1, 0x00, 0x01, 0x01, 0x00, 0xfd,
  0xfc, 0x05, 0x06, 0x03, 0x04, 0x01, 0x07, 0xf3, 0x06, 0x05, 0x06, 0xfd,
  0xf8, 0xe9, 0xf6, 0xf5, 0x00, 0xfc, 0xff, 0xfd, 0x00, 0xfe, 0x03, 0xfe,
  0x00, 0x05, 0xcf, 0xfc, 0xfe, 0x01, 0x00, 0xfb, 0x03, 0xfd, 0xfb, 0x00,
  0xfd, 0xfc, 0xff, 0x01, 0x07, 0xf9, 0x07, 0xff, 0xfd, 0x00, 0x02, 0xff,
  0x02, 0xfb, 0x01, 0x01, 0xfd, 0x00, 0x02, 0x01, 0x01, 0xfb, 0x03, 0xff,
  0xff, 0xfb, 0x02, 0x03, 0xfe, 0x04, 0x09, 0x02, 0xfd, 0xff, 0xff, 0x05,
  0x01, 0xf8, 0x04, 0xfa, 0xf8, 0xf4, 0x01, 0x06, 0x03, 0x05, 0x00, 0xfa,
  0x09, 0xff, 0x01, 0xed, 0x06, 0xf6, 0x00, 0xff, 0x01, 0x04, 0x02, 0x00,
  0x08, 0xef, 0xfd, 0x05, 0xeb, 0x00, 0x04, 0xf7, 0xfa, 0x00, 0xff, 0xe7,
  0x00, 0x06, 0xfe, 0x02, 0x01, 0x02, 0xff, 0xfe, 0xff, 0x02, 0x05, 0xfc,
  0x02, 0x07, 0xfc, 0xf8, 0x00, 0x00, 0x01, 0x00, 0xfb, 0x00, 0x03, 0x02,
  0x04, 0x00, 0xff, 0x0e, 0xfe, 0x01, 0xf9, 0xfd, 0xef, 0x01, 0xfe, 0x00,
  0x01, 0xf5, 0x00, 0xfb, 0xf8, 0xff, 0xfe, 0x04, 0x03, 0x05, 0x07, 0xff,
  0xff, 0xfe, 0x03, 0x02, 0xff, 0xf7, 0xe9, 0x04, 0x02, 0x05, 0x00, 0x07,
  0x0a, 0x0c, 0x03, 0xf7, 0x04, 0x04, 0x02, 0x02, 0x00, 0x01, 0xff, 0xf9,
  0x0e, 0xf6, 0x05, 0x05, 0xff, 0x00, 0x00, 0x00, 0x02, 0xff, 0xfe, 0xff,
  0xfe, 0xff, 0x01, 0xfe, 0x00, 0xff, 0x00, 0x01, 0x00, 0x00, 0x00, 0x00,
  0x00, 0x00, 0x00, 0x00, 0xfe, 0x00, 0xfe, 0x00, 0x00, 0x00, 0x01, 0x01,
  0x00, 0x01, 0xff, 0xfe, 0x01, 0x00, 0xfe, 0xfe, 0xff, 0xfe, 0xff, 0x00,
  0x02, 0xff, 0xff, 0x01, 0x01, 0xfe, 0x01, 0xff, 0xfe, 0xfe, 0x00, 0xfe,
  0x01, 0x00, 0x00, 0x00, 0xff, 0xff, 0xff, 0x00, 0x02, 0x06, 0x04, 0xfa,
  0x00, 0xf8, 0x03, 0x04, 0xfb, 0x04, 0xfe, 0xfe, 0x06, 0xff, 0xfb, 0xfa,
  0xff, 0x04, 0x04, 0xf8, 0x13, 0xfd, 0x08, 0x06, 0xf3, 0x02, 0xff, 0xfd,
  0x00, 0xfe, 0xf6, 0xfb, 0xfd, 0x03, 0x01, 0xf9, 0xff, 0xed, 0x06, 0x01,
  0x03, 0xfe, 0x03, 0xfc, 0x05, 0xff, 0xf5, 0xfe, 0x01, 0xff, 0x06, 0xfc,
  0x03, 0xf5, 0xff, 0xfe, 0x00, 0x05, 0x00, 0xf5, 0xe6, 0x00, 0x03, 0x09,
  0xff, 0x00, 0x00, 0x01, 0x01, 0x00, 0x01, 0x01, 0x00, 0xff, 0xfe, 0x00,
  0xff, 0xff, 0x01, 0x01, 0xff, 0xfe, 0xfe, 0xfe, 0x00, 0xfe, 0x00, 0x00,
  0x01, 0x01, 0xff, 0x00, 0xfe, 0x01, 0x00, 0xfe, 0xfd, 0xff, 0x02, 0xfe,
  0x01, 0xff, 0xff, 0xff, 0x00, 0x00, 0x00, 0xff, 0x01, 0xff, 0x00, 0xfe,
  0xff, 0x00, 0x00, 0xff, 0xff, 0x01, 0x01, 0x01, 0x01, 0xff, 0x01, 0xfe,
  0xfe, 0x01, 0xfe, 0xff, 0xff, 0xff, 0xff, 0x01, 0x02, 0x01, 0x06, 0xff,
  0x03, 0x01, 0x02, 0x04, 0x02, 0xff, 0xff, 0xea, 0x03, 0x03, 0x05, 0x00,
  0xfc, 0x07, 0xfb, 0xfa, 0x03, 0xf6, 0x02, 0xff, 0x05, 0x00, 0x02, 0x02,
  0x03, 0x00, 0xea, 0x02, 0x01, 0xfe, 0xff, 0x01, 0x06, 0xfe, 0xff, 0x04,
  0xfe, 0x04, 0x00, 0xfc, 0xff, 0xfb, 0x02, 0x08, 0xff, 0x00, 0x00, 0xff,
  0xfe, 0xff, 0x01, 0x05, 0x00, 0x03, 0xfe, 0x01, 0x00, 0x03, 0xf9, 0xf8,
  0xff, 0x06, 0x0b, 0x03, 0xf5, 0x00, 0xfb, 0x02, 0x00, 0x01, 0xfb, 0xee,
  0xf6, 0x01, 0x06, 0xe3, 0x07, 0xf8, 0x06, 0x04, 0xfd, 0xfd, 0x00, 0xff,
  0xff, 0x01, 0xfb, 0xfa, 0x00, 0x00, 0x02, 0x00, 0x00, 0xf8, 0x06, 0x06,
  0xfd, 0xfb, 0x06, 0xff, 0x01, 0xfd, 0xfb, 0x00, 0x03, 0xe2, 0x03, 0xfb,
  0x07, 0xfd, 0x02, 0x01, 0x00, 0xfe, 0x01, 0xf8, 0xf1, 0xf9, 0x08, 0x07,
  0xfd, 0x00, 0x06, 0x04, 0x01, 0xee, 0xff, 0xf3, 0x01, 0xfd, 0xff, 0x03,
  0x01, 0xfe, 0xf4, 0x13, 0xf9, 0xf0, 0x03, 0xfb, 0x01, 0x03, 0x02, 0x00,
  0xff, 0x02, 0x02, 0xf2, 0x03, 0xff, 0xfc, 0xf7, 0x0c, 0x09, 0x00, 0xf7,
  0x01, 0xf9, 0xee, 0x02, 0xfd, 0xf5, 0x04, 0x02, 0xec, 0x18, 0xff, 0x02,
  0xfa, 0x04, 0xff, 0xf7, 0x00, 0x01, 0xff, 0x01, 0xff, 0x02, 0x10, 0xff,
  0x02, 0xfe, 0x00, 0x00, 0x04, 0xfb, 0x03, 0xfd, 0x00, 0x06, 0xfc, 0x04,
  0x00, 0x00, 0xfd, 0xf6, 0xfc, 0x01, 0x00, 0xe0, 0x02, 0x06, 0x01, 0x04,
  0x03, 0x09, 0x07, 0xfc, 0xf5, 0x12, 0x01, 0x0b, 0xfc, 0x01, 0xfb, 0xfe,
  0xee, 0xf3, 0x02, 0x08, 0x03, 0xf9, 0x00, 0xeb, 0x00, 0xfe, 0x01, 0xfe,
  0x0a, 0x04, 0xfe, 0xfd, 0x03, 0x00, 0x02, 0x00, 0x0b, 0x01, 0x02, 0x01,
  0xff, 0xff, 0x00, 0xff, 0xf9, 0x07, 0x02, 0xff, 0x06, 0x03, 0x01, 0xf6,
  0x00, 0xfb, 0x09, 0x06, 0x02, 0xeb, 0xf5, 0x06, 0xeb, 0x00, 0xfa, 0xee,
  0x04, 0xf5, 0x05, 0xf3, 0xfa, 0xf8, 0x06, 0x09, 0xfd, 0xfe, 0xff, 0x01,
  0x00, 0x01, 0xff, 0x04, 0x00, 0xfa, 0x99, 0x09, 0xfe, 0xf7, 0x01, 0x00,
  0x00, 0xf5, 0x01, 0x03, 0x06, 0x05, 0xfc, 0x05, 0xfd, 0xfc, 0xf6, 0xf6,
  0x02, 0xfd, 0x01, 0xff, 0xff, 0x03, 0x00, 0x00, 0xf4, 0xf9, 0xfd, 0x06,
  0xc2, 0x06, 0x14, 0x01, 0x01, 0xf7, 0xeb, 0x00, 0xf9, 0x05, 0xfe, 0xe3,
  0x04, 0xff, 0xf9, 0xfd, 0xff, 0x01, 0xf2, 0x0b, 0x10, 0xdd, 0x01, 0x06,
  0xfe, 0x07, 0xff, 0xf7, 0xfd, 0xff, 0xf5, 0xfc, 0xeb, 0xfc, 0x02, 0xfe,
  0x00, 0xf7, 0xf7, 0xfc, 0x02, 0xfc, 0xfb, 0xe4, 0x08, 0x00, 0xfd, 0xfe,
  0x00, 0x08, 0xff, 0x07, 0xfa, 0xf5, 0x01, 0x01, 0x02, 0x04, 0x02, 0xfd,
  0xed, 0xfe, 0xf5, 0xfe, 0xff, 0xff, 0x01, 0xfe, 0x02, 0xff, 0xff, 0x00,
  0xfd, 0xfe, 0x01, 0xff, 0xff, 0xfe, 0xfd, 0xfe, 0x00, 0x02, 0xfe, 0x01,
  0x00, 0xff, 0x01, 0xff, 0xfe, 0x01, 0xff, 0xff, 0x01, 0xff, 0x01, 0xff,
  0x00, 0xff, 0xfe, 0x02, 0xff, 0xff, 0xfe, 0xfe, 0xff, 0xff, 0xff, 0x00,
  0x00, 0x00, 0xff, 0xff, 0x00, 0x00, 0xff, 0xff, 0x00, 0xfd, 0xff, 0x01,
  0x00, 0xfe, 0xff, 0x00, 0x00, 0xff, 0xfd, 0xfe, 0xfe, 0xfc, 0xff, 0xfc,
  0x01, 0x00, 0xf8, 0xfe, 0xfe, 0x02, 0x01, 0xfa, 0x07, 0x00, 0xfe, 0xd9,
  0x05, 0x05, 0x02, 0x07, 0x06, 0xe4, 0xfa, 0x03, 0xff, 0xe7, 0xff, 0xfe,
  0x00, 0x01, 0x01, 0x02, 0xff, 0xfd, 0xef, 0x04, 0x00, 0x02, 0xff, 0x06,
  0xfc, 0xfc, 0x00, 0xfe, 0x07, 0xf7, 0x01, 0xff, 0x00, 0x05, 0x04, 0xfd,
  0x02, 0xfe, 0xfe, 0xff, 0x01, 0xfd, 0x03, 0x10, 0xfc, 0x03, 0x05, 0x02,
  0x03, 0xfb, 0x01, 0xff, 0x01, 0x00, 0xfb, 0x0a, 0xf3, 0xfd, 0xfb, 0xfd,
  0x02, 0x00, 0x08, 0x09, 0x02, 0x06, 0x08, 0xfb, 0x05, 0xfa, 0x01, 0x01,
  0xf9, 0x02, 0xfe, 0xfa, 0xfd, 0x01, 0x04, 0x00, 0xf1, 0x07, 0x03, 0x0b,
  0x01, 0xfc, 0xfe, 0xdd, 0x08, 0x03, 0x07, 0x02, 0x04, 0x06, 0xff, 0xfc,
  0xfe, 0x01, 0x01, 0x04, 0xfe, 0xfd, 0x00, 0x01, 0xfe, 0xef, 0xf8, 0x05,
  0xfd, 0x03, 0x04, 0xff, 0x04, 0xfe, 0xff, 0x01, 0x01, 0x04, 0x03, 0xf3,
  0xfa, 0x05, 0x03, 0x05, 0xfc, 0x01, 0x04, 0x0c, 0x05, 0x02, 0x07, 0xfd,
  0xf9, 0x0a, 0x04, 0xea, 0xf2, 0x08, 0x00, 0xff, 0xfc, 0x00, 0x03, 0x03,
  0x0e, 0xfb, 0xfe, 0xff, 0x01, 0xfb, 0xff, 0xfd, 0x06, 0xff, 0x01, 0xdf,
  0x02, 0xf2, 0xd7, 0x00, 0x02, 0xf1, 0x01, 0x09, 0xfe, 0xe9, 0xff, 0x02,
  0x00, 0xf0, 0x04, 0xec, 0xf7, 0x05, 0xfa, 0x01, 0x04, 0x03, 0xef, 0x00,
  0xff, 0x01, 0xfb, 0x0a, 0xf8, 0xff, 0x03, 0x01, 0xfe, 0xff, 0x0a, 0x05,
  0x07, 0x03, 0x05, 0x01, 0x06, 0x03, 0x03, 0x02, 0xf8, 0x01, 0xff, 0xff,
  0xf8, 0xff, 0xfb, 0x07, 0xfd, 0xf6, 0xfc, 0x05, 0x01, 0x00, 0xff, 0xee,
  0x04, 0xff, 0x04, 0xff, 0x07, 0xf9, 0xfd, 0xfc, 0x03, 0xfe, 0x01, 0x05,
  0xfb, 0xfb, 0x01, 0xff, 0x01, 0xef, 0xfd, 0xf8, 0xfc, 0xfe, 0x01, 0x01,
  0x06, 0x01, 0xf6, 0x09, 0x01, 0xfc, 0x07, 0xff, 0x01, 0xf5, 0xf4, 0x01,
  0xee, 0xff, 0xff, 0x05, 0xf5, 0xfd, 0x03, 0xfc, 0x03, 0xff, 0x05, 0x08,
  0xfc, 0xfe, 0xff, 0x01, 0x08, 0xff, 0xfe, 0xfd, 0x03, 0xfe, 0x0b, 0x07,
  0xff, 0xfd, 0x04, 0x03, 0x00, 0xf8, 0x05, 0x00, 0xff, 0x00, 0xf9, 0xfc,
  0x00, 0x02, 0xf9, 0x00, 0xfe, 0xfe, 0x02, 0x02, 0xfe, 0x02, 0xff, 0x0a,
  0xf9, 0x0e, 0xfa, 0xfe, 0x00, 0x01, 0x00, 0xfb, 0xff, 0x05, 0x08, 0x03,
  0xfb, 0x00, 0xff, 0xfc, 0xfb, 0x00, 0xff, 0x07, 0x01, 0x03, 0x04, 0xe3,
  0xfe, 0xf9, 0x03, 0x05, 0xf7, 0x03, 0xfe, 0xfa, 0xf5, 0x01, 0xec, 0x05,
  0x07, 0xec, 0x00, 0x00, 0x02, 0xe7, 0xff, 0xfd, 0xfc, 0xff, 0x00, 0x02,
  0x00, 0xf5, 0xfa, 0xf6, 0x00, 0xf3, 0x03, 0xfc, 0x03, 0x00, 0xfe, 0x01,
  0x02, 0x00, 0x04, 0xf7, 0xea, 0xf3, 0x02, 0x03, 0x03, 0x00, 0xf5, 0x00,
  0x02, 0x05, 0x07, 0x00, 0x00, 0xfc, 0x01, 0x01, 0xf6, 0x02, 0x04, 0xf0,
  0xfb, 0xff, 0x02, 0x07, 0x10, 0x04, 0xfe, 0xff, 0x04, 0x01, 0x00, 0x05,
  0x03, 0x01, 0x02, 0xfe, 0x01, 0x01, 0xdf, 0x00, 0xff, 0x04, 0x04, 0xfd,
  0x01, 0xff, 0x02, 0x02, 0xff, 0xff, 0x05, 0x01, 0x01, 0xff, 0xf7, 0x09,
  0xfd, 0x01, 0x02, 0x02, 0xff, 0xfe, 0xf9, 0xfd, 0x04, 0xfb, 0xff, 0xf6,
  0x00, 0x07, 0x01, 0xfa, 0xff, 0x02, 0xff, 0xff, 0x01, 0xd7, 0xf0, 0xff,
  0xfb, 0x01, 0x06, 0x04, 0xf2, 0x10, 0x06, 0x01, 0x09, 0xf3, 0x04, 0x01,
  0x05, 0x02, 0x02, 0x00, 0x00, 0x00, 0x02, 0x04, 0x01, 0xf9, 0xe0, 0x09,
  0x00, 0x06, 0x02, 0x00, 0xfa, 0x05, 0x03, 0x01, 0xf9, 0xff, 0xff, 0x07,
  0x02, 0x0e, 0xef, 0xfc, 0x07, 0x00, 0x00, 0xfe, 0x02, 0xdf, 0xf4, 0xf9,
  0x03, 0xf8, 0x03, 0xf7, 0x06, 0x00, 0x0a, 0xec, 0xfe, 0xf9, 0x0a, 0xff,
  0x00, 0xf9, 0xf4, 0x05, 0xfb, 0x01, 0xf9, 0xfe, 0xfb, 0xf9, 0x06, 0xfe,
  0x12, 0xdc, 0x06, 0xfc, 0xfa, 0x06, 0x00, 0x03, 0x06, 0x01, 0x02, 0xff,
  0x00, 0x01, 0xfe, 0x04, 0x00, 0xff, 0x02, 0x01, 0x05, 0xfd, 0x08, 0xfd,
  0x06, 0x07, 0xef, 0x04, 0xfd, 0xf8, 0x00, 0x02, 0xfb, 0xf9, 0xfe, 0xff,
  0x01, 0x02, 0xf8, 0xf1, 0xeb, 0x08, 0xf3, 0xfd, 0xfe, 0xff, 0x01, 0xff,
  0x01, 0xfe, 0x01, 0xfe, 0x00, 0x00, 0xfe, 0xfe, 0x00, 0x00, 0xff, 0xfe,
  0x01, 0x02, 0xfe, 0xfe, 0x00, 0x00, 0xff, 0xfe, 0xff, 0xff, 0x01, 0x01,
  0xff, 0x02, 0x01, 0xff, 0xff, 0x00, 0xff, 0xff, 0x00, 0x01, 0x00, 0xff,
  0x01, 0xff, 0xfe, 0xfe, 0xff, 0x00, 0x01, 0xfe, 0xfd, 0x00, 0xfe, 0xfe,
  0xff, 0xfd, 0xff, 0x01, 0xff, 0x00, 0x00, 0xff, 0x00, 0xfe, 0x00, 0xff,
  0xfc, 0xf0, 0x0c, 0xfa, 0x01, 0xfe, 0x06, 0xef, 0x04, 0x00, 0xfc, 0xff,
  0xf7, 0xff, 0xfc, 0x17, 0xf9, 0x03, 0x01, 0x00, 0x03, 0xfc, 0xfe, 0xfc,
  0xfc, 0x0c, 0xff, 0x06, 0x01, 0x01, 0xfe, 0x07, 0xff, 0xff, 0x04, 0x05,
  0x01, 0xfe, 0xf3, 0xfa, 0xe7, 0x02, 0xf9, 0x03, 0xf9, 0x0c, 0x00, 0xfc,
  0xfe, 0x03, 0x05, 0x01, 0x06, 0x04, 0xff, 0x01, 0x01, 0x05, 0x0c, 0x02,
  0x09, 0x06, 0x01, 0x00, 0x05, 0x09, 0x02, 0x00, 0x02, 0xfe, 0x01, 0x04,
  0x00, 0xf3, 0xf5, 0x01, 0xf6, 0x00, 0xf7, 0x01, 0xf3, 0x0f, 0x03, 0xf9,
  0xf7, 0xfd, 0x07, 0x06, 0xfb, 0x0c, 0x00, 0xff, 0xff, 0x01, 0xff, 0x00,
  0xfc, 0x0a, 0xe9, 0x04, 0x00, 0xfa, 0x04, 0x02, 0xf7, 0xfb, 0x03, 0x01,
  0xfe, 0xfb, 0xfc, 0x01, 0xe3, 0xf6, 0xfa, 0xfd, 0x06, 0xfd, 0xff, 0x00,
  0x02, 0xfd, 0xf7, 0x0a, 0x06, 0x06, 0x06, 0x02, 0x02, 0xf9, 0xfe, 0xfd,
  0x01, 0xfd, 0xfe, 0x0a, 0x00, 0x03, 0xff, 0xfb, 0x00, 0x00, 0xfa, 0x04,
  0x01, 0x03, 0x06, 0x00, 0xfd, 0x09, 0xf8, 0xf4, 0xf8, 0xf5, 0xfe, 0x00,
  0x03, 0xff, 0xfb, 0x03, 0xfd, 0x06, 0x04, 0x04, 0x01, 0xf1, 0x01, 0x04,
  0x04, 0x02, 0x01, 0xfb, 0x0a, 0xf0, 0xf6, 0xc8, 0x04, 0xff, 0x05, 0x02,
  0x03, 0xf4, 0xff, 0x01, 0x02, 0xfb, 0x05, 0xf6, 0xe7, 0x08, 0xf3, 0x06,
  0xee, 0xf8, 0xfa, 0x04, 0xfe, 0x05, 0xff, 0xff, 0xf5, 0x06, 0x06, 0xfe,
  0x0a, 0xfe, 0x03, 0xf4, 0x03, 0xfd, 0xfe, 0xff, 0xfe, 0x03, 0xfb, 0xfa,
  0x04, 0x08, 0x02, 0xf6, 0xf7, 0xfe, 0x05, 0x03, 0xfe, 0x04, 0x06, 0xfd,
  0x02, 0x02, 0xf6, 0xf9, 0x00, 0xfb, 0xf3, 0xff, 0x03, 0xff, 0x04, 0x01,
  0x00, 0x0e, 0xf5, 0x06, 0xf1, 0x01, 0xff, 0xfe, 0xff, 0xff, 0xfa, 0x08,
  0x09, 0xfd, 0x01, 0xec, 0x06, 0x01, 0xfd, 0x00, 0xfe, 0x01, 0x02, 0xfd,
  0x04, 0x03, 0xf7, 0x02, 0xe4, 0x01, 0xfe, 0x00, 0x01, 0xfb, 0x05, 0xfb,
  0x05, 0xfa, 0x02, 0xfc, 0xfd, 0xfd, 0xff, 0x04, 0x08, 0xfe, 0xfd, 0x01,
  0x01, 0xdf, 0xec, 0x01, 0xff, 0xfe, 0xff, 0x00, 0xfd, 0x01, 0x0a, 0xff,
  0x04, 0xfa, 0xf3, 0x04, 0xe9, 0xff, 0xf7, 0x0d, 0xf7, 0xf6, 0x01, 0x00,
  0xfe, 0x05, 0x01, 0xf7, 0xf8, 0x03, 0xe3, 0xf9, 0x07, 0xfc, 0xfa, 0x08,
  0x01, 0x01, 0xdb, 0x05, 0x02, 0x00, 0x02, 0x01, 0x01, 0xff, 0xff, 0xfd,
  0x03, 0x02, 0xfd, 0x02, 0x00, 0x0f, 0xfb, 0x00, 0xfd, 0xfe, 0xff, 0x01,
  0x09, 0x01, 0xff, 0xff, 0xfd, 0xfe, 0x03, 0x00, 0x00, 0x00, 0x06, 0xfe,
  0x04, 0xf9, 0x01, 0x01, 0xfd, 0xfe, 0x00, 0xf2, 0xfd, 0xf9, 0x02, 0xf5,
  0xfc, 0xfe, 0x01, 0x02, 0x00, 0x02, 0x04, 0x05, 0xf7, 0x07, 0x02, 0x05,
  0xfe, 0xfe, 0xfe, 0xfd, 0xfe, 0xff, 0x00, 0xff, 0x01, 0x00, 0xfe, 0xfe,
  0xff, 0xfe, 0x00, 0x01, 0xff, 0x02, 0x00, 0xff, 0xff, 0x01, 0xff, 0xfd,
  0xff, 0xfe, 0x01, 0xff, 0x01, 0x01, 0xfe, 0x02, 0xfe, 0x02, 0xff, 0x00,
  0xff, 0x01, 0x00, 0x00, 0x00, 0x00, 0xfe, 0x00, 0xff, 0xff, 0x00, 0x01,
  0x00, 0xfe, 0x01, 0x00, 0xfe, 0xfd, 0x00, 0xfe, 0x00, 0xff, 0x00, 0xfe,
  0x00, 0xff, 0xfd, 0x00, 0xe4, 0x01, 0x01, 0x09, 0xff, 0x00, 0x03, 0xfc,
  0xfc, 0x03, 0x01, 0x02, 0x06, 0x01, 0xfe, 0x02, 0x02, 0xfd, 0xf2, 0xf8,
  0xfe, 0xf0, 0xeb, 0xf4, 0x04, 0x08, 0xfe, 0xfa, 0x03, 0xff, 0x05, 0xf5,
  0xfd, 0x02, 0xfe, 0x00, 0x01, 0x00, 0x02, 0xff, 0x05, 0xf5, 0xf9, 0xfc,
  0xf6, 0x08, 0x03, 0x00, 0x06, 0xfd, 0x05, 0x00, 0x05, 0xfe, 0xff, 0x00,
  0xff, 0x04, 0x02, 0x01, 0x03, 0x00, 0xfb, 0x03, 0xfe, 0xff, 0x00, 0x00,
  0x02, 0xfe, 0x01, 0x01, 0xfe, 0x01, 0xfe, 0xff, 0x01, 0xff, 0xfe, 0xfe,
  0xfd, 0x00, 0xff, 0xfd, 0x01, 0x00, 0x00, 0xfe, 0xfe, 0xfd, 0x00, 0xff,
  0xfd, 0x01, 0x01, 0x00, 0xff, 0x00, 0x00, 0xfd, 0x00, 0xff, 0x00, 0x00,
  0xfd, 0xfe, 0x00, 0xfe, 0xfe, 0xfd, 0xff, 0x02, 0x00, 0xfe, 0x00, 0xff,
  0x00, 0x01, 0xff, 0x01, 0x02, 0xfd, 0xff, 0xfe, 0xfe, 0xff, 0x00, 0xff,
  0x03, 0x04, 0xf7, 0xff, 0x00, 0x05, 0x03, 0x08, 0xf7, 0xf9, 0x02, 0x03,
  0xfe, 0xff, 0x07, 0x0a, 0x02, 0x06, 0x06, 0xfd, 0xfe, 0xff, 0x04, 0xfd,
  0xf7, 0xf3, 0x00, 0x01, 0xfa, 0xff, 0xf6, 0x0a, 0xf6, 0xf6, 0x02, 0x09,
  0x03, 0x00, 0xf5, 0xf4, 0x00, 0x06, 0x02, 0x01, 0x08, 0xfe, 0xff, 0xff,
  0x03, 0x04, 0x01, 0x06, 0xfd, 0x00, 0xff, 0x02, 0x01, 0xe1, 0x07, 0xf9,
  0x02, 0x03, 0x00, 0xfd, 0x07, 0x05, 0xf0, 0x00, 0xff, 0x06, 0xf9, 0xf7,
  0xf7, 0x03, 0x03, 0x02, 0xfe, 0x01, 0xff, 0xea, 0x02, 0x04, 0x07, 0xfe,
  0xff, 0xff, 0xff, 0x01, 0xfd, 0x00, 0x00, 0xfb, 0xfe, 0x00, 0x04, 0xed,
  0xfd, 0xfc, 0x01, 0xfe, 0x01, 0x02, 0x0d, 0xfe, 0x09, 0xf5, 0x03, 0xff,
  0xd3, 0xf9, 0xfc, 0x00, 0x05, 0x00, 0x00, 0xf9, 0xfd, 0xfd, 0xff, 0xff,
  0xff, 0x00, 0xf5, 0x02, 0xfa, 0x03, 0x08, 0x04, 0x03, 0xfe, 0x00, 0x03,
  0x00, 0x03, 0xfd, 0xfe, 0xfa, 0x06, 0x04, 0x04, 0xfe, 0xff, 0x05, 0x0c,
  0xfe, 0x03, 0x01, 0xfb, 0xf7, 0x0b, 0x01, 0x02, 0xff, 0xf4, 0x00, 0x01,
  0xfc, 0x01, 0x03, 0xeb, 0xff, 0xff, 0x0f, 0xfd, 0x00, 0x04, 0x03, 0x01,
  0x07, 0xf4, 0x08, 0x04, 0xe7, 0xfd, 0x00, 0x01, 0x09, 0xe9, 0xfc, 0xf9,
  0x00, 0x01, 0x00, 0x01, 0x01, 0x01, 0xf9, 0xf5, 0x04, 0xf8, 0x05, 0xfc,
  0x05, 0xfd, 0xfb, 0x04, 0xff, 0xfe, 0xf3, 0xff, 0x03, 0xff, 0xfe, 0x04,
  0xf4, 0x01, 0xfe, 0xea, 0xfe, 0xfc, 0x03, 0x05, 0x04, 0xfa, 0x03, 0x07,
  0x01, 0xf1, 0xff, 0x06, 0xfc, 0xff, 0xfc, 0x03, 0x03, 0xef, 0xe1, 0x04,
  0x01, 0x02, 0x01, 0x05, 0xfe, 0xfb, 0xff, 0x02, 0x09, 0xfe, 0x06, 0xfe,
  0x00, 0xee, 0x01, 0xfc, 0x02, 0x05, 0xff, 0x01, 0x00, 0x05, 0x00, 0x00,
  0xfd, 0xfd, 0x02, 0x02, 0xff, 0xfa, 0xf5, 0x06, 0x01, 0xf5, 0xe9, 0x01,
  0xf8, 0xfe, 0xff, 0xfa, 0x0c, 0x00, 0x01, 0x0e, 0xfd, 0x01, 0x01, 0xf5,
  0x05, 0xff, 0xfe, 0xfa, 0xf2, 0x00, 0x00, 0x02, 0x01, 0xff, 0xfa, 0xfb,
  0xf1, 0x08, 0xe7, 0x05, 0xff, 0xfc, 0x02, 0xff, 0x09, 0x01, 0xfd, 0xed,
  0x02, 0x0a, 0xff, 0x0d, 0xfb, 0xf5, 0x06, 0x05, 0xed, 0xf8, 0xff, 0xff,
  0xfe, 0x03, 0xf4, 0x09, 0xf0, 0x04, 0xf1, 0xf5, 0xfa, 0x0a, 0x03, 0xf2,
  0xff, 0xff, 0x07, 0xfd, 0xfe, 0x00, 0xfd, 0x00, 0x01, 0xff, 0xfb, 0x06,
  0x00, 0x02, 0x02, 0x02, 0x09, 0x0e, 0xfc, 0x02, 0xf9, 0x0a, 0xff, 0xff,
  0xfa, 0x02, 0x04, 0x02, 0xfe, 0x03, 0x03, 0xfd, 0xff, 0xf2, 0x02, 0x02,
  0xfa, 0x03, 0xf1, 0x03, 0x01, 0xfd, 0xf7, 0xfa, 0x02, 0x06, 0x05, 0xf9,
  0x08, 0xfe, 0x02, 0x01, 0xff, 0xfe, 0x01, 0xe4, 0xfe, 0xfb, 0x05, 0x04,
  0xfe, 0xff, 0x00, 0x00, 0xff, 0xfe, 0x01, 0xff, 0x00, 0xfd, 0xfe, 0xfe,
  0x00, 0x00, 0x01, 0xfe, 0xfe, 0xff, 0x01, 0xfe, 0xfe, 0x01, 0xfe, 0xfe,
  0x01, 0xff, 0xff, 0xff, 0x00, 0x01, 0xfd, 0x01, 0xfd, 0x00, 0xff, 0xff,
  0x01, 0xff, 0x00, 0xfe, 0x01, 0x01, 0xff, 0xff, 0x01, 0xff, 0x01, 0xfe,
  0xfd, 0xfe, 0x01, 0xff, 0x00, 0x00, 0x01, 0xff, 0x01, 0x00, 0xfe, 0x01,
  0xff, 0x00, 0xfe, 0xfd, 0xff, 0x09, 0x03, 0xfa, 0xff, 0x00, 0x08, 0x01,
  0xea, 0x02, 0xfb, 0xec, 0xff, 0x02, 0xf8, 0xff, 0xfb, 0x00, 0xfe, 0xe9,
  0x10, 0xfc, 0x03, 0x03, 0xf4, 0xf9, 0xfe, 0xeb, 0xef, 0x02, 0xeb, 0x05,
  0xfd, 0xfd, 0x12, 0xfc, 0x01, 0xfa, 0x04, 0x06, 0xfc, 0x04, 0xf6, 0xf4,
  0x03, 0x02, 0xf5, 0x05, 0xfc, 0xf3, 0xfe, 0xfd, 0x03, 0xf2, 0x00, 0x00,
  0x02, 0x05, 0xff, 0xff, 0xe4, 0xf7, 0x03, 0x02, 0x00, 0x04, 0xfd, 0x00,
  0xfe, 0x01, 0xda, 0x02, 0xff, 0x02, 0x07, 0x02, 0x01, 0xfe, 0xfb, 0xe6,
  0x01, 0x01, 0x00, 0x01, 0xff, 0x0c, 0xf3, 0xf6, 0xff, 0x0a, 0x00, 0x00,
  0x00, 0x01, 0x00, 0xfe, 0x01, 0x01, 0xfb, 0xf8, 0x00, 0xff, 0x06, 0xfc,
  0x03, 0xfa, 0x00, 0x01, 0x06, 0x00, 0x03, 0xfe, 0x03, 0xfa, 0x08, 0x03,
  0x05, 0x02, 0xfe, 0x00, 0xff, 0xf8, 0xfe, 0xfa, 0x00, 0x02, 0x05, 0x07,
  0xff, 0xfe, 0x00, 0x01, 0x00, 0xff, 0xfe, 0xff, 0xfd, 0x01, 0xfe, 0x00,
  0x01, 0x00, 0x01, 0x00, 0xff, 0xff, 0xff, 0x01, 0x01, 0xff, 0xfe, 0xff,
  0xfe, 0xfe, 0x01, 0xfe, 0xfe, 0x01, 0xff, 0x01, 0x01, 0xff, 0xff, 0x00,
  0x02, 0x00, 0xfe, 0xff, 0xff, 0xff, 0xff, 0x00, 0xff, 0xff, 0x00, 0x01,
  0x01, 0xff, 0xfe, 0xfe, 0xff, 0xfe, 0x01, 0xfe, 0x00, 0xfd, 0xfd, 0xff,
  0xfe, 0xfe, 0x02, 0x00, 0x03, 0x07, 0xf0, 0xfe, 0x00, 0x02, 0xf3, 0x00,
  0x09, 0x09, 0x08, 0x04, 0xfd, 0x00, 0xf7, 0x05, 0x01, 0x05, 0xfd, 0xff,
  0x02, 0x01, 0xff, 0xff, 0x01, 0xfc, 0xfe, 0x04, 0xfc, 0x01, 0xff, 0xfe,
  0xfe, 0x00, 0xdd, 0xff, 0x02, 0xfc, 0xff, 0x04, 0xff, 0x01, 0xf6, 0x02,
  0xfb, 0xff, 0x02, 0x05, 0x07, 0xf9, 0x06, 0xfe, 0x05, 0x07, 0x01, 0x00,
  0x01, 0x01, 0x07, 0xef, 0x03, 0xff, 0x01, 0x03, 0x02, 0xfb, 0xff, 0x00,
  0x01, 0x07, 0x00, 0xff, 0x06, 0xfc, 0x06, 0x03, 0x04, 0x00, 0xfe, 0xff,
  0x03, 0xff, 0x00, 0x01, 0x04, 0x05, 0xff, 0x02, 0x02, 0xf7, 0xff, 0xfc,
  0x02, 0xff, 0xff, 0xf7, 0x02, 0x05, 0x01, 0xfa, 0xff, 0x01, 0x03, 0xfd,
  0x05, 0xf6, 0xfe, 0xff, 0xe1, 0xf8, 0x01, 0x00, 0xfd, 0x01, 0x01, 0xfb,
  0x02, 0x01, 0x00, 0x00, 0x01, 0x00, 0xf5, 0xff, 0x01, 0xfe, 0x00, 0x01,
  0xfe, 0x01, 0xfd, 0x0c, 0xff, 0xfd, 0x09, 0xfd, 0xfc, 0x04, 0xff, 0xfb,
  0xfd, 0xff, 0x01, 0xfb, 0xfe, 0x02, 0x05, 0xcd, 0x03, 0xf2, 0x01, 0x02,
  0xf2, 0x04, 0xff, 0xfa, 0xfe, 0x01, 0xfd, 0xff, 0xf8, 0x05, 0xeb, 0x05,
  0xff, 0x00, 0xff, 0x00, 0x04, 0xfe, 0x03, 0xfc, 0x00, 0x04, 0x05, 0xf3,
  0xfe, 0xfa, 0xfe, 0x02, 0x00, 0xfe, 0x02, 0x01, 0x00, 0x06, 0xff, 0x08,
  0xf1, 0x07, 0xfd, 0x01, 0xf9, 0xf8, 0x00, 0x03, 0xff, 0xfc, 0xd2, 0xd8,
  0xe7, 0xfe, 0xfc, 0xfb, 0x00, 0xff, 0x06, 0x0d, 0xf7, 0xfb, 0xee, 0xff,
  0xe3, 0x11, 0xf0, 0xf8, 0x08, 0xfd, 0x02, 0xf8, 0xfb, 0x01, 0x02, 0x01,
  0xfe, 0xf6, 0xfc, 0xfb, 0x01, 0x04, 0x03, 0xf8, 0x02, 0x02, 0x0e, 0xfa,
  0xd7, 0x05, 0x00, 0xfd, 0xf9, 0x08, 0x01, 0xff, 0xf6, 0xfe, 0xff, 0x00,
  0x00, 0xfb, 0xfd, 0x08, 0x00, 0xfa, 0x01, 0x08, 0xf9, 0xf8, 0x08, 0x04,
  0x02, 0xed, 0xf7, 0xd5, 0x02, 0x00, 0xff, 0x00, 0x04, 0x02, 0xf7, 0x00,
  0xfd, 0xf8, 0x02, 0xf2, 0xfe, 0x04, 0x00, 0x03, 0xfe, 0x0f, 0xfe, 0xf4,
  0x05, 0xff, 0xf6, 0x0b, 0x00, 0xff, 0x00, 0xff, 0x00, 0xf5, 0xf5, 0x02,
  0xf4, 0xfc, 0xfe, 0x01, 0xea, 0x09, 0x04, 0x03, 0x01, 0x03, 0x04, 0xee,
  0x05, 0x02, 0xfe, 0x01, 0x01, 0x00, 0x09, 0x07, 0x00, 0x08, 0xfd, 0x05,
  0xfd, 0x01, 0xfe, 0xff, 0x00, 0x00, 0x00, 0xfe, 0x00, 0xfd, 0xff, 0xfe,
  0xfe, 0xff, 0xfe, 0x01, 0xfe, 0xff, 0xfe, 0x00, 0xfe, 0x00, 0xfe, 0xfe,
  0x00, 0xff, 0x00, 0x00, 0xff, 0x00, 0xfd, 0x00, 0xff, 0x00, 0xff, 0x01,
  0x02, 0x00, 0xfe, 0xfe, 0x00, 0x00, 0x00, 0xfe, 0x01, 0xfd, 0x01, 0x00,
  0xfe, 0x01, 0xff, 0xff, 0xfe, 0x00, 0x00, 0xff, 0x00, 0xff, 0xfe, 0x00,
  0xfd, 0x01, 0x01, 0x01, 0xf5, 0x08, 0x06, 0xfa, 0x00, 0xf6, 0xff, 0xf5,
  0x01, 0x01, 0xfc, 0xe5, 0x04, 0xfe, 0xf2, 0xff, 0x01, 0xff, 0xf6, 0xf9,
  0x05, 0xfd, 0x01, 0xee, 0xeb, 0x00, 0xff, 0xfc, 0x02, 0x01, 0xf7, 0x01,
  0xfe, 0x06, 0x0b, 0x04, 0x00, 0xe7, 0x02, 0x02, 0x03, 0xff, 0x01, 0xf8,
  0x02, 0x03, 0xe9, 0xf8, 0x04, 0x04, 0x03, 0x06, 0x00, 0xed, 0x00, 0x01,
  0xff, 0x00, 0xfd, 0xf2, 0xc0, 0x03, 0xf6, 0x03, 0x06, 0x04, 0xf4, 0x05,
  0xff, 0x01, 0xfe, 0xfa, 0x03, 0x05, 0x05, 0xff, 0xff, 0x00, 0xfd, 0xef,
  0x02, 0xff, 0x03, 0xff, 0x03, 0xcf, 0xf7, 0xfb, 0x02, 0xfe, 0xff, 0x03,
  0x00, 0x02, 0x01, 0xf4, 0x01, 0x04, 0xfd, 0xfc, 0x00, 0x02, 0x01, 0x00,
  0xfd, 0xf9, 0xfe, 0x05, 0x00, 0xf7, 0x00, 0x07, 0x02, 0x02, 0x00, 0xea,
  0xfe, 0x00, 0x00, 0xff, 0xfe, 0x03, 0xf6, 0xfe, 0xfb, 0x01, 0x08, 0xfb,
  0xff, 0xf7, 0x07, 0x03, 0xfe, 0x04, 0x05, 0x05, 0x00, 0xf8, 0xfe, 0xf3,
  0x02, 0xfe, 0x03, 0x06, 0x01, 0xfc, 0x06, 0x02, 0x09, 0xfd, 0x06, 0xfe,
  0xfc, 0x01, 0x00, 0x06, 0xfd, 0x00, 0xed, 0x0b, 0xf7, 0xf4, 0xff, 0x08,
  0x04, 0xfe, 0xf4, 0xde, 0xfb, 0x02, 0x03, 0x00, 0x04, 0x0a, 0x00, 0x00,
  0xf7, 0xfe, 0xfe, 0x04, 0xf5, 0xff, 0x01, 0x02, 0x02, 0xfe, 0x04, 0xfc,
  0xff, 0x04, 0x01, 0xf9, 0xf9, 0xe3, 0x02, 0x00, 0xfe, 0xfc, 0x00, 0x07,
  0xf8, 0x00, 0xfe, 0xc9, 0x00, 0xfe, 0x0f, 0x06, 0x00, 0x01, 0x00, 0x02,
  0x02, 0x0e, 0xff, 0xfc, 0x02, 0x03, 0x02, 0xf7, 0xff, 0x01, 0xfd, 0x04,
  0x00, 0xfd, 0x05, 0x04, 0x01, 0x02, 0x05, 0xfe, 0x09, 0x02, 0x03, 0xff,
  0x0b, 0xfd, 0xfd, 0xf2, 0x00, 0x08, 0xf8, 0x05, 0xe3, 0xf0, 0xfe, 0x00,
  0xfe, 0x01, 0xf0, 0x03, 0xf9, 0x00, 0xf9, 0xf8, 0x02, 0xfa, 0xfe, 0x01,
  0x02, 0x04, 0x01, 0x02, 0xf8, 0xfc, 0x03, 0xf5, 0x05, 0xff, 0xf3, 0x0a,
  0x03, 0x0b, 0x01, 0xfa, 0xf7, 0x05, 0x03, 0xff, 0xe0, 0xee, 0x01, 0x01,
  0xf9, 0x01, 0xf1, 0x05, 0xff, 0x01, 0xfd, 0x07, 0xff, 0xf6, 0xfd, 0xf8,
  0xfb, 0x04, 0xfd, 0x01, 0xf9, 0x09, 0x03, 0xf9, 0xfe, 0xf1, 0x06, 0x04,
  0xff, 0xff, 0x00, 0x02, 0x00, 0xf1, 0x09, 0x07, 0xf9, 0x08, 0x00, 0x01,
  0x00, 0x01, 0xff, 0x01, 0x02, 0x01, 0xff, 0x01, 0xfe, 0xfe, 0xff, 0xfe,
  0x00, 0x02, 0xfe, 0xff, 0x01, 0xfe, 0x00, 0xff, 0x01, 0xff, 0xfe, 0xff,
  0xfe, 0x01, 0x01, 0xff, 0xff, 0x01, 0xff, 0x02, 0xff, 0xff, 0xff, 0xfe,
  0x01, 0x00, 0xfd, 0x02, 0x00, 0xfe, 0x01, 0xff, 0x01, 0x00, 0xfe, 0x02,
  0xff, 0x02, 0x00, 0xff, 0xfe, 0x00, 0xff, 0xfe, 0x02, 0x00, 0xfe, 0xff,
  0xff, 0x01, 0xff, 0xfe, 0xf2, 0xfe, 0xf7, 0xf9, 0xfe, 0xfa, 0x00, 0x03,
  0xfc, 0x04, 0x01, 0xff, 0x06, 0xff, 0xfb, 0x1c, 0x04, 0xf9, 0xfc, 0x00,
  0x03, 0x08, 0x02, 0xf9, 0x01, 0xfe, 0x02, 0xf9, 0xe4, 0xff, 0x00, 0x05,
  0xfe, 0xf9, 0x0a, 0x00, 0x00, 0x02, 0xf9, 0x00, 0xfd, 0x02, 0xe8, 0x04,
  0x06, 0xfe, 0x03, 0x00, 0x05, 0x03, 0x03, 0xfa, 0xfd, 0x01, 0x01, 0x01,
  0x00, 0xfe, 0x02, 0xfb, 0x0e, 0xf6, 0x09, 0x02, 0xff, 0x04, 0x02, 0xfb,
  0x01, 0xfc, 0xf4, 0x05, 0xf6, 0x04, 0x05, 0x05, 0xff, 0xff, 0x04, 0xe6,
  0x01, 0xfa, 0x06, 0xfd, 0xf9, 0x06, 0x05, 0x03, 0x07, 0xfa, 0xff, 0xea,
  0xbf, 0xfe, 0x02, 0x01, 0x02, 0xf0, 0xfc, 0x03, 0x00, 0xff, 0xfd, 0x00,
  0xfa, 0x04, 0xf8, 0x0a, 0x00, 0xfc, 0x03, 0xf0, 0x06, 0x0a, 0x04, 0xfd,
  0x00, 0x04, 0x01, 0xff, 0xff, 0xfe, 0x03, 0x05, 0xfa, 0xf0, 0x09, 0x03,
  0xfe, 0x04, 0xff, 0x02, 0x01, 0xfe, 0x0b, 0x02, 0x02, 0xfd, 0xff, 0x02,
  0x07, 0xff, 0x06, 0x1f, 0x06, 0x02, 0xff, 0x04, 0x07, 0x06, 0x04, 0x07,
  0x04, 0xff, 0xfe, 0xf8, 0xe7, 0xff, 0x00, 0xfd, 0xff, 0xf3, 0xfa, 0xf7,
  0xff, 0x05, 0xfe, 0x00, 0xfe, 0xf9, 0xf7, 0x03, 0xfd, 0x01, 0x03, 0xff,
  0xfe, 0xfe, 0xfe, 0xfc, 0xfd, 0x03, 0x01, 0x01, 0x00, 0x08, 0x00, 0xf7,
  0x02, 0xea, 0x01, 0xfb, 0xfb, 0xf7, 0x09, 0xfc, 0x02, 0x00, 0xf4, 0xff,
  0xff, 0x06, 0x05, 0x04, 0x01, 0x00, 0xfd, 0x07, 0x05, 0x03, 0x01, 0xfe,
  0xfd, 0xfe, 0xfe, 0x04, 0xff, 0x08, 0xfe, 0x02, 0x00, 0x01, 0xfd, 0x02,
  0xff, 0x00, 0x04, 0xf8, 0x02, 0xfc, 0x02, 0xfe, 0xff, 0xff, 0x03, 0x04,
  0xfd, 0xff, 0x00, 0xff, 0x02, 0xf4, 0x08, 0x02, 0x07, 0x00, 0x00, 0x01,
  0x00, 0x03, 0x09, 0xf7, 0xf7, 0x02, 0x03, 0x09, 0x02, 0xfb, 0xfc, 0x07,
  0xfe, 0x01, 0x03, 0x00, 0x00, 0xfd, 0xfc, 0xfc, 0x0b, 0x01, 0x02, 0xe5,
  0xfc, 0x01, 0x02, 0x02, 0x03, 0xc3, 0xff, 0x00, 0x00, 0xf1, 0x02, 0xfe,
  0x04, 0x00, 0xfb, 0xfb, 0xfe, 0xfb, 0xf9, 0x09, 0xff, 0xfd, 0x00, 0x06,
  0x00, 0xfa, 0x08, 0xf9, 0xfa, 0xfb, 0x01, 0x07, 0xfe, 0x03, 0xfb, 0xff,
  0xf8, 0xfe, 0xff, 0xff, 0x00, 0x09, 0xfb, 0x0b, 0xf7, 0x00, 0xfa, 0xfb,
  0x01, 0x07, 0x0b, 0xdc, 0x01, 0x01, 0xf4, 0x0b, 0xf9, 0x01, 0x01, 0xf8,
  0x03, 0xff, 0x02, 0x0c, 0x03, 0xfc, 0xff, 0x05, 0x03, 0xff, 0xfd, 0xf6,
  0x03, 0xfe, 0x00, 0x02, 0xd1, 0xff, 0x07, 0x0a, 0xfb, 0x02, 0xf9, 0xf2,
  0x02, 0xff, 0xfe, 0x03, 0xf7, 0x08, 0xfd, 0xfd, 0x0b, 0xfc, 0xfe, 0x03,
  0x00, 0x04, 0x05, 0xfb, 0x03, 0xfe, 0x01, 0xfe, 0x00, 0xfe, 0xfd, 0x06,
  0x00, 0xff, 0x00, 0x01, 0x01, 0x02, 0x03, 0x06, 0x02, 0xfe, 0x07, 0xfc,
  0x07, 0x02, 0x02, 0x02, 0x02, 0x02, 0xf7, 0x01, 0xfd, 0x01, 0x01, 0xfd,
  0xf2, 0xfb, 0x06, 0x03, 0xfa, 0x09, 0x01, 0x07, 0xfd, 0xfe, 0xfc, 0x06,
  0xfc, 0xff, 0x08, 0xff, 0x01, 0xfe, 0x02, 0x02, 0x01, 0x05, 0xf4, 0x02,
  0xfd, 0x06, 0x03, 0xfd, 0x00, 0x04, 0xfd, 0x06, 0x02, 0x04, 0x00, 0x00,
  0x02, 0x05, 0x08, 0x02, 0x08, 0xf6, 0xff, 0xfb, 0xfe, 0xf2, 0xff, 0xfe,
  0x00, 0x04, 0xfc, 0x05, 0x05, 0xfd, 0xfe, 0xff, 0xfe, 0xff, 0x03, 0xfb,
  0xf9, 0xf9, 0x00, 0x05, 0xf7, 0x0c, 0x09, 0x05, 0x03, 0x0b, 0xff, 0xfe,
  0xfc, 0x00, 0x01, 0x06, 0x04, 0xfd, 0x09, 0x07, 0xff, 0x03, 0x00, 0xfc,
  0xfd, 0xfa, 0xfd, 0x03, 0x01, 0x03, 0x04, 0x00, 0xf1, 0x0b, 0xf1, 0xff,
  0xfb, 0x02, 0x02, 0xfe, 0xfe, 0x00, 0xfd, 0x04, 0x07, 0x03, 0x04, 0xfb,
  0x00, 0xff, 0x01, 0xff, 0xfe, 0x01, 0xfe, 0x01, 0xfe, 0x01, 0xff, 0xff,
  0x01, 0xff, 0x01, 0xff, 0xfe, 0x01, 0xfe, 0x00, 0xfe, 0x00, 0x01, 0x00,
  0x00, 0x00, 0xff, 0x00, 0x00, 0x02, 0xfe, 0x00, 0x00, 0xff, 0x00, 0xfe,
  0x01, 0xff, 0xff, 0x00, 0xfe, 0x00, 0xfe, 0x01, 0x00, 0x01, 0xff, 0xff,
  0x00, 0xfe, 0x01, 0xff, 0x00, 0xfe, 0xff, 0x01, 0x02, 0x01, 0xff, 0xff,
  0x00, 0x00, 0xfe, 0xff, 0xfe, 0x00, 0xfb, 0x06, 0x00, 0x05, 0x04, 0x03,
  0xf7, 0x05, 0x05, 0x03, 0xfc, 0xff, 0x08, 0x01, 0xfd, 0x02, 0x04, 0xfe,
  0xda, 0xf1, 0xf9, 0xfb, 0x04, 0x08, 0x00, 0xfe, 0xff, 0xff, 0x04, 0x03,
  0x02, 0xf8, 0xee, 0xfa, 0xfe, 0x07, 0x00, 0xfb, 0xfb, 0x00, 0x07, 0x04,
  0x00, 0x02, 0x06, 0xf9, 0x03, 0xef, 0x03, 0xfd, 0x04, 0x04, 0x01, 0x00,
  0x00, 0x05, 0xfb, 0xf6, 0x09, 0xf7, 0x07, 0x06, 0x05, 0x08, 0xff, 0x03,
  0x01, 0x02, 0xf9, 0x01, 0xfd, 0xef, 0x00, 0xf8, 0xfc, 0x02, 0x07, 0x07,
  0x04, 0xfc, 0x01, 0x00, 0x00, 0xfc, 0x01, 0xf8, 0xfc, 0x07, 0xff, 0xfe,
  0x01, 0x00, 0xfc, 0x04, 0xff, 0x00, 0x07, 0x0f, 0xff, 0x01, 0xfa, 0xf9,
  0x06, 0xff, 0x02, 0xfa, 0x00, 0x07, 0xf9, 0xfe, 0xf2, 0x00, 0xfd, 0x06,
  0xe9, 0x00, 0xfe, 0x00, 0xfe, 0xe6, 0xf5, 0x03, 0xfb, 0x08, 0xfa, 0xfb,
  0x05, 0xf8, 0x00, 0x05, 0x02, 0xfb, 0x0f, 0x02, 0xfe, 0x01, 0x00, 0xfa,
  0x00, 0x00, 0x04, 0x02, 0x11, 0xfe, 0xf2, 0xf4, 0x00, 0x07, 0xff, 0x04,
  0xfa, 0x00, 0x02, 0x08, 0xe7, 0xfe, 0x00, 0xf9, 0x00, 0xfe, 0xc9, 0xff,
  0xff, 0x02, 0x02, 0x07, 0x06, 0xfb, 0x0c, 0xfc, 0x03, 0x06, 0x03, 0xfd,
  0xf3, 0x10, 0xe2, 0xf9, 0xe2, 0x00, 0x02, 0x00, 0x00, 0xfe, 0x00, 0x0a,
  0x03, 0x04, 0xf9, 0xdd, 0xfe, 0x05, 0x07, 0xc4, 0x02, 0xff, 0x0b, 0xfa,
  0xf5, 0x00, 0xfe, 0xfc, 0x02, 0x01, 0xf9, 0x0c, 0xff, 0xff, 0xff, 0xe6,
  0xf5, 0xfd, 0x01, 0x01, 0xf5, 0x01, 0xff, 0xf4, 0xf5, 0x02, 0xf3, 0xfd,
  0xff, 0x00, 0x0b, 0xfe, 0x02, 0xdf, 0x01, 0x05, 0xfa, 0xff, 0x07, 0xfc,
  0x05, 0xf9, 0xef, 0xfc, 0x01, 0x13, 0x06, 0x05, 0x07, 0xf4, 0x01, 0xfe,
  0x01, 0x04, 0x01, 0x05, 0x10, 0xfd, 0x04, 0x07, 0xff, 0x01, 0x01, 0xff,
  0x00, 0x00, 0x00, 0x01, 0xfe, 0xff, 0xff, 0xfe, 0xff, 0x00, 0xfe, 0x01,
  0xff, 0x00, 0x01, 0xfe, 0xff, 0x00, 0x00, 0x02, 0x01, 0x00, 0xff, 0x00,
  0xfd, 0x00, 0xfe, 0x01, 0xff, 0x02, 0xfe, 0xfe, 0xfe, 0xff, 0x00, 0x00,
  0x00, 0xfe, 0xfe, 0xfe, 0xff, 0xfd, 0xfe, 0xff, 0xfe, 0x01, 0xfe, 0xfe,
  0x00, 0xfe, 0xfe, 0x01, 0xfe, 0xfe, 0xff, 0xfe, 0x00, 0xff, 0x02, 0xff,
  0x03, 0x01, 0xfc, 0x05, 0xff, 0xfe, 0x02, 0xfe, 0xf7, 0x06, 0xff, 0x05,
  0x02, 0xfe, 0xfc, 0xe4, 0x01, 0x05, 0x02, 0xf2, 0x06, 0x06, 0x04, 0x03,
  0xf7, 0xfe, 0x01, 0xff, 0x04, 0x01, 0x01, 0xff, 0x00, 0xfd, 0xd9, 0x03,
  0x01, 0xfb, 0x05, 0xfb, 0x05, 0xfe, 0x03, 0x02, 0x02, 0xfa, 0x02, 0x03,
  0x04, 0x02, 0x03, 0x06, 0xfe, 0xfe, 0xfe, 0xff, 0x00, 0x03, 0x03, 0xfc,
  0xf1, 0xf8, 0x02, 0x05, 0x07, 0xf8, 0xfa, 0x00, 0xfe, 0xfe, 0x00, 0xfc,
  0x02, 0xf5, 0xec, 0x03, 0xd9, 0xff, 0x00, 0xfd, 0xee, 0xf8, 0x05, 0xfc,
  0x08, 0x0d, 0x09, 0x0a, 0x00, 0xf4, 0xfe, 0x00, 0xfe, 0x01, 0x02, 0xfe,
  0x02, 0x09, 0xfd, 0x07, 0x02, 0xfc, 0x03, 0x01, 0xfb, 0xfb, 0x02, 0x02,
  0x05, 0xfb, 0xfd, 0x08, 0xf2, 0xfb, 0xeb, 0xff, 0x01, 0x00, 0x00, 0x00,
  0xff, 0xfe, 0xfb, 0x04, 0xe1, 0xf2, 0x00, 0x01, 0x03, 0x05, 0xfe, 0x08,
  0x01, 0xfb, 0x08, 0x04, 0x03, 0xfd, 0xfb, 0xff, 0xfb, 0x00, 0xfb, 0x06,
  0xfa, 0xff, 0x04, 0xf6, 0xff, 0xef, 0xfd, 0xf5, 0xfc, 0x0b, 0x01, 0x02,
  0x0b, 0xff, 0xfe, 0x06, 0x02, 0x03, 0x07, 0x0c, 0x02, 0xfd, 0x02, 0xfc,
  0x04, 0xfd, 0x08, 0xf9, 0x06, 0x05, 0xf6, 0xee, 0x00, 0xfc, 0x00, 0x01,
  0xfd, 0xf3, 0x02, 0xfe, 0x01, 0x02, 0x00, 0x0c, 0xf8, 0x0e, 0xe4, 0x00,
  0x02, 0x09, 0xfe, 0xfc, 0x02, 0x00, 0xf7, 0xfb, 0x00, 0x00, 0x01, 0x01,
  0x02, 0x02, 0xf2, 0xff, 0xfc, 0x09, 0x0b, 0x01, 0x04, 0x0e, 0x03, 0x01,
  0x00, 0x0b, 0x00, 0x01, 0xfc, 0x01, 0x01, 0x06, 0xfb, 0xfd, 0x0b, 0xff,
  0xff, 0xfc, 0xfd, 0xfd, 0xf4, 0xf8, 0xe9, 0x06, 0x02, 0x02, 0xff, 0x08,
  0x02, 0x03, 0xfd, 0xf5, 0x03, 0x01, 0x02, 0x02, 0x00, 0x03, 0x05, 0xfc,
  0x06, 0xfb, 0x01, 0xfb, 0x01, 0xfa, 0xfa, 0x02, 0x01, 0x01, 0x02, 0x01,
  0xf7, 0x07, 0x04, 0x03, 0xf7, 0x01, 0x00, 0x16, 0xfb, 0xfc, 0x00, 0xe8,
  0xfe, 0xfc, 0x00, 0x04, 0xff, 0x07, 0x01, 0xf8, 0xfe, 0x01, 0xfe, 0x00,
  0xfb, 0xff, 0x1b, 0xf8, 0xff, 0xfe, 0x04, 0xfc, 0xff, 0xfa, 0x05, 0x07,
  0x0a, 0x05, 0x02, 0x01, 0x06, 0xf9, 0x00, 0x02, 0x03, 0x05, 0x00, 0x00,
  0xff, 0x02, 0xfd, 0x01, 0x07, 0xf5, 0x04, 0x04, 0x03, 0x0a, 0x06, 0xfb,
  0xff, 0x02, 0xfd, 0x01, 0xfc, 0x00, 0xfc, 0xf5, 0x00, 0xfe, 0xf3, 0xf1,
  0xf8, 0x06, 0xf5, 0x00, 0x09, 0xfe, 0x05, 0x02, 0xea, 0x04, 0x01, 0x0f,
  0xeb, 0xfe, 0xfb, 0xf9, 0xfa, 0x04, 0xf0, 0x04, 0x00, 0xdc, 0xfe, 0x03,
  0xec, 0xfe, 0xf5, 0xff, 0x03, 0x0b, 0x03, 0x0a, 0xfb, 0x07, 0x01, 0x03,
  0x04, 0x06, 0xff, 0xfe, 0x02, 0x04, 0x07, 0xff, 0x02, 0xdc, 0x04, 0xfe,
  0x00, 0xff, 0x00, 0xfe, 0xff, 0xff, 0xfe, 0x01, 0x00, 0x00, 0x01, 0xfe,
  0xff, 0x00, 0x00, 0x01, 0x00, 0x01, 0xff, 0x00, 0xfe, 0x01, 0xff, 0xfe,
  0xfe, 0x01, 0xfe, 0xfd, 0x00, 0x01, 0xfe, 0xff, 0x00, 0xfe, 0xff, 0x01,
  0x02, 0xff, 0x00, 0xff, 0x01, 0x00, 0x01, 0xfe, 0x00, 0x00, 0x01, 0xff,
  0xfe, 0xff, 0xff, 0x01, 0x01, 0x00, 0xfe, 0xff, 0x00, 0xff, 0xff, 0xff,
  0xfe, 0xff, 0x01, 0xff, 0xf5, 0xf9, 0x00, 0x04, 0x00, 0xfc, 0xff, 0xfa,
  0xfd, 0x05, 0x01, 0x03, 0x0d, 0x00, 0x01, 0x08, 0xfa, 0xfa, 0x02, 0x03,
  0x00, 0xd3, 0x04, 0x08, 0x04, 0xfe, 0x02, 0xfd, 0xf6, 0x01, 0x01, 0xfe,
  0x01, 0xf8, 0x03, 0xfe, 0x01, 0x01, 0x03, 0x00, 0x03, 0xfe, 0xf7, 0x00,
  0xfe, 0xfd, 0x05, 0xfd, 0x02, 0xe0, 0x02, 0x07, 0xff, 0x03, 0x00, 0xfe,
  0xfe, 0xff, 0xfb, 0xfc, 0x02, 0x01, 0x07, 0xfe, 0xf7, 0xfa, 0x08, 0x03,
  0xff, 0xf6, 0x02, 0xfc, 0x08, 0x00, 0xfe, 0x06, 0xfa, 0xff, 0xed, 0x05,
  0xf8, 0x02, 0xf8, 0xfb, 0x08, 0x07, 0x01, 0x01, 0xf2, 0x0b, 0x00, 0x09,
  0x06, 0xff, 0xee, 0xf9, 0x04, 0xf4, 0x05, 0x0e, 0xfe, 0xf7, 0xfb, 0xfe,
  0xf4, 0xfc, 0xf7, 0x00, 0xfd, 0x08, 0x02, 0x04, 0xf2, 0x0e, 0x02, 0xfe,
  0x07, 0x02, 0x00, 0x01, 0x00, 0xff, 0x10, 0xff, 0x0a, 0x03, 0xf7, 0x02,
  0xfc, 0xf7, 0xf8, 0xfd, 0x00, 0x04, 0xee, 0x03, 0xfa, 0xf4, 0xf4, 0xfe,
  0x00, 0x02, 0x06, 0x0c, 0x07, 0xfc, 0x06, 0x09, 0x07, 0x0e, 0x00, 0xfd,
  0x03, 0x06, 0x02, 0x06, 0xed, 0x00, 0x00, 0xff, 0xfe, 0x01, 0xf9, 0x06,
  0xff, 0x00, 0x06, 0xfd, 0x01, 0xfb, 0xfb, 0xff, 0x05, 0xfd, 0xfb, 0x00,
  0x02, 0xfc, 0x01, 0x03, 0xf1, 0xf8, 0x00, 0x02, 0xfe, 0xfb, 0x03, 0xf9,
  0x06, 0x07, 0x05, 0xfe, 0x04, 0x08, 0xfb, 0x03, 0x02, 0xff, 0x05, 0x01,
  0x08, 0xed, 0xfa, 0x00, 0xfa, 0x01, 0x05, 0xfa, 0xf6, 0xef, 0x00, 0xfe,
  0x03, 0x11, 0xfc, 0xfb, 0x01, 0x02, 0x02, 0x06, 0x05, 0x00, 0x02, 0xfe,
  0x02, 0x02, 0x10, 0x04, 0xff, 0x04, 0xfc, 0x04, 0xfe, 0x01, 0x04, 0xff,
  0x02, 0xf8, 0xfa, 0x07, 0xfd, 0xf6, 0xf6, 0x02, 0xfb, 0x04, 0x00, 0x00,
  0xfe, 0xff, 0xff, 0x00, 0x03, 0x07, 0xf1, 0xf7, 0x02, 0x02, 0xfa, 0x09,
  0xff, 0x02, 0xfa, 0xfe, 0xfd, 0xff, 0xfe, 0xfd, 0xfa, 0xff, 0xf9, 0xef,
  0xf9, 0x06, 0xfe, 0x00, 0x08, 0xee, 0x03, 0xfe, 0xfe, 0xf6, 0x01, 0xfe,
  0x09, 0x01, 0x01, 0x00, 0xff, 0xfb, 0x0a, 0x05, 0x01, 0x02, 0x00, 0xfe,
  0x05, 0xfe, 0x08, 0xfa, 0x00, 0xfd, 0x03, 0xff, 0xfd, 0x03, 0xf7, 0xfa,
  0xfe, 0x02, 0x00, 0x01, 0x01, 0x05, 0xff, 0x06, 0xc9, 0xfb, 0x02, 0x02,
  0x09, 0x0b, 0xf8, 0x01, 0xfe, 0xfd, 0x05, 0xf0, 0xff, 0xfb, 0xfe, 0x04,
  0xf7, 0x01, 0x08, 0xfc, 0xff, 0x00, 0x02, 0x04, 0x09, 0x00, 0x08, 0x09,
  0x04, 0x0b, 0xfe, 0xff, 0x01, 0x02, 0x04, 0xf9, 0x03, 0xed, 0xfc, 0xfe,
  0xff, 0x04, 0x02, 0xf8, 0x01, 0xf7, 0x02, 0x02, 0xea, 0xfb, 0x02, 0x01,
  0x00, 0x0b, 0xf8, 0x02, 0xff, 0xff, 0x01, 0xff, 0xfe, 0x00, 0xff, 0xfe,
  0xfa, 0xf7, 0xff, 0xfd, 0xf6, 0xec, 0x00, 0x02, 0xfe, 0xf9, 0xea, 0x04,
  0xfb, 0xfd, 0xfe, 0xec, 0x05, 0x01, 0x00, 0x02, 0x02, 0xfb, 0xf2, 0x03,
  0x06, 0xfe, 0xfc, 0xfb, 0x00, 0x01, 0xfe, 0xfa, 0xf5, 0x01, 0xfc, 0xfc,
  0xff, 0xf8, 0x09, 0x00, 0xff, 0x04, 0xe6, 0x02, 0xff, 0xfc, 0xfa, 0xf8,
  0x08, 0x03, 0xff, 0x07, 0xfe, 0x14, 0xfd, 0x06, 0xee, 0xfa, 0xff, 0x00,
  0x00, 0xfb, 0xfa, 0x04, 0xff, 0x01, 0xff, 0xf7, 0xff, 0xff, 0x00, 0xff,
  0x01, 0xff, 0x01, 0xff, 0xfe, 0xff, 0x00, 0xfe, 0xfe, 0x00, 0xfe, 0x01,
  0x00, 0x00, 0x01, 0x00, 0xff, 0x01, 0xfe, 0x00, 0xff, 0x00, 0x00, 0xfe,
  0x00, 0x00, 0xfe, 0xfe, 0xfe, 0xfe, 0xff, 0xff, 0x00, 0xfe, 0x00, 0x00,
  0x00, 0x00, 0x01, 0x00, 0xfe, 0xff, 0x01, 0x00, 0x02, 0xff, 0xff, 0x00,
  0x01, 0xff, 0x02, 0x00, 0x00, 0x00, 0x01, 0xfe, 0x00, 0x00, 0xff, 0xff,
  0xfe, 0xfe, 0x01, 0xff, 0x00, 0xff, 0x01, 0x01, 0xfe, 0x01, 0xfe, 0x01,
  0xfe, 0x00, 0x00, 0x01, 0x01, 0x02, 0x00, 0x01, 0x00, 0x00, 0x00, 0xfd,
  0xff, 0x01, 0x01, 0x02, 0xfe, 0x00, 0x00, 0xfe, 0x00, 0x00, 0x00, 0xfe,
  0x00, 0xfe, 0xff, 0xfe, 0x01, 0xfe, 0xfe, 0xff, 0xff, 0xfe, 0xff, 0xfe,
  0xff, 0xfe, 0xfe, 0xff, 0xff, 0xff, 0x00, 0x01, 0x00, 0x00, 0xfe, 0x00,
  0xff, 0xfe, 0x00, 0xff, 0xf5, 0xfe, 0xfc, 0xfd, 0x02, 0xfc, 0x01, 0xf6,
  0x03, 0x02, 0x03, 0xf9, 0x04, 0xff, 0xfb, 0xfc, 0x03, 0x03, 0xfe, 0x05,
  0x0b, 0xfd, 0x05, 0x00, 0x02, 0x0b, 0x02, 0x00, 0x00, 0x01, 0xfc, 0x06,
  0xff, 0x02, 0xed, 0x02, 0xff, 0x00, 0xff, 0xff, 0xfd, 0x04, 0xff, 0xfe,
  0xfe, 0x05, 0x03, 0xed, 0x02, 0x01, 0x04, 0x06, 0x03, 0x02, 0xfe, 0x00,
  0x02, 0x04, 0x00, 0xf9, 0x08, 0xff, 0xfd, 0x00, 0x01, 0x07, 0x04, 0x07,
  0x01, 0xf4, 0x0b, 0xf1, 0xfb, 0xf9, 0xfa, 0xf6, 0x05, 0x01, 0xf0, 0x06,
  0xfa, 0x02, 0x01, 0xf3, 0x04, 0xed, 0x01, 0x01, 0xe3, 0x06, 0x02, 0x02,
  0x04, 0xff, 0xf7, 0x04, 0xff, 0x06, 0x05, 0xfe, 0xfe, 0xdb, 0x02, 0x02,
  0x06, 0xfe, 0x08, 0xf3, 0x00, 0x03, 0xea, 0xef, 0x00, 0xfc, 0x03, 0xfb,
  0x00, 0xf1, 0x00, 0xff, 0x02, 0x05, 0xfa, 0xf3, 0x00, 0x08, 0xf7, 0x06,
  0xf5, 0x07, 0xfd, 0x02, 0x00, 0x02, 0xf8, 0x0d, 0xff, 0x07, 0x04, 0x05,
  0xfd, 0x01, 0x01, 0x0d, 0x05, 0x00, 0xf1, 0xfd, 0x09, 0x04, 0xfb, 0xfd,
  0x04, 0x00, 0xfe, 0xfc, 0x04, 0xfe, 0xfc, 0x04, 0x00, 0xf7, 0x03, 0xfd,
  0x00, 0x02, 0xff, 0xfc, 0xfd, 0x02, 0x18, 0x03, 0x07, 0xfd, 0x05, 0xf5,
  0x01, 0xfd, 0x01, 0xff, 0x00, 0x02, 0x01, 0xfe, 0xff, 0x07, 0xfe, 0xfd,
  0x01, 0xd6, 0x05, 0xfe, 0x03, 0x04, 0xfc, 0xf7, 0x00, 0xf0, 0x06, 0xf1,
  0x01, 0xfc, 0xff, 0x04, 0xfe, 0xff, 0x05, 0x0e, 0xfe, 0xe7, 0x02, 0x02,
  0x06, 0x08, 0xfb, 0xfa, 0x04, 0xfe, 0x01, 0xf8, 0xfb, 0x01, 0x03, 0xfb,
  0x08, 0x07, 0xf6, 0xff, 0xff, 0x04, 0xfc, 0x02, 0x00, 0xf9, 0xf5, 0x02,
  0xed, 0xfb, 0x02, 0x05, 0xfc, 0x08, 0x03, 0x0a, 0xfe, 0x01, 0x01, 0xff,
